{"version":"1.0","truncation":null,"padding":null,"added_tokens":[{"id":0,"content":"<UNK>","single_word":false,"lstrip":false,"rstrip":false,"normalized":false,"special":true},{"id":1,"content":"<PAD>","single_word":false,"lstrip":false,"rstrip":false,"normalized":false,"special":true},{"id":2,"content":"<BOS>","single_word":false,"lstrip":false,"rstrip":false,"normalized":false,"special":true},{"id":3,"content":"<EOS>","single_word":false,"lstrip":false,"rstrip":false,"normalized":false,"special":true},{"id":4,"content":"<SEP>","single_word":false,"lstrip":false,"rstrip":false,"normalized":false,"special":true},{"id":5,"content":"<NOM>","single_word":false,"lstrip":false,"rstrip":false,"normalized":false,"special":true},{"id":6,"content":"<GEN>","single_word":false,"lstrip":false,"rstrip":false,"normalized":false,"special":true},{"id":7,"content":"<DAT>","single_word":false,"lstrip":false,"rstrip":false,"normalized":false,"special":true},{"id":8,"content":"<ACC>","single_word":false,"lstrip":false,"rstrip":false,"normalized":false,"special":true},{"id":9,"content":"<ABL>","single_word":false,"lstrip":false,"rstrip":false,"normalized":false,"special":true},{"id":10,"content":"<LOC>","single_word":false,"lstrip":false,"rstrip":false,"normalized":false,"special":true},{"id":11,"content":"<VOC>","single_word":false,"lstrip":false,"rstrip":false,"normalized":false,"special":true},{"id":12,"content":"<ACT>","single_word":false,"lstrip":false,"rstrip":false,"normalized":false,"special":true},{"id":13,"content":"<PAS>","single_word":false,"lstrip":false,"rstrip":false,"normalized":false,"special":true},{"id":14,"content":"<PAR>","single_word":false,"lstrip":false,"rstrip":false,"normalized":false,"special":true}],"normalizer":{"type":"Sequence","normalizers":[{"type":"Strip","strip_left":true,"strip_right":true},{"type":"StripAccents"},{"type":"NFC"},{"type":"Lowercase"}]},"pre_tokenizer":{"type":"ByteLevel","add_prefix_space":true,"trim_offsets":true,"use_regex":true},"post_processor":{"type":"ByteLevel","add_prefix_space":true,"trim_offsets":true,"use_regex":true},"decoder":{"type":"ByteLevel","add_prefix_space":true,"trim_offsets":true,"use_regex":true},"model":{"type":"BPE","dropout":null,"unk_token":null,"continuing_subword_prefix":null,"end_of_word_suffix":null,"fuse_unk":false,"byte_fallback":false,"vocab":{"<UNK>":0,"<PAD>":1,"<BOS>":2,"<EOS>":3,"<SEP>":4,"<NOM>":5,"<GEN>":6,"<DAT>":7,"<ACC>":8,"<ABL>":9,"<LOC>":10,"<VOC>":11,"<ACT>":12,"<PAS>":13,"<PAR>":14,"!":15,"\"":16,"'":17,"(":18,")":19,",":20,"-":21,".":22,"/":23,"1":24,"2":25,"7":26,"8":27,":":28,";":29,"<":30,">":31,"?":32,"a":33,"b":34,"c":35,"d":36,"e":37,"f":38,"g":39,"h":40,"i":41,"j":42,"k":43,"l":44,"m":45,"n":46,"o":47,"p":48,"q":49,"r":50,"s":51,"t":52,"u":53,"v":54,"w":55,"x":56,"y":57,"z":58,"Â":59,"ĉ":60,"Ġ":61,"ł":62,"se":63,"sep":64,"><":65,"th":66,"ac":67,"an":68,"the":69,"in":70,"and":71,"no":72,"act":73,"Ġthe":74,"ou":75,"en":76,"Ġw":77,"of":78,"nom":79,"ar":80,"Ġh":81,"Ġs":82,"it":83,"er":84,"ll":85,"Ġb":86,",<":87,"acc":88,"or":89,"at":90,"on":91,"ing":92,"is":93,"ed":94,"to":95,"es":96,"ab":97,"you":98,"Ġand":99,"gen":100,"Ġm":101,"Ġa":102,"Ġf":103,"Ġbe":104,"Ġwi":105,"Ġof":106,"abl":107,"as":108,"ay":109,"re":110,"Ġc":111,"ho":112,"le":113,"Ġwill":114,"Ġyou":115,"par":116,"Ġto":117,"Ġd":118,"Ġg":119,"Ġp":120,"Ġth":121,"Ġl":122,"ve":123,"ro":124,"Ġi":125,":<":126,"Ġin":127,"Ġha":128,"Ġis":129,"im":130,"ow":131,"all":132,"they":133,"Ġhe":134,"for":135,"not":136,"Ġt":137,"st":138,"Ġthem":139,"Ġsh":140,"Ġe":141,"od":142,"Ġu":143,"Ġ<":144,"ld":145,"who":146,"id":147,"own":148,"ir":149,"ut":150,"out":151,"ord":152,"am":153,"ri":154,"Ġhave":155,"ad":156,"al":157,"ver":158,"om":159,"gh":160,"Ġar":161,"ak":162,"el":163,"Ġse":164,"Ġit":165,"ic":166,"Ġfor":167,"pas":168,"ion":169,"ear":170,"dat":171,"Ġthat":172,"ra":173,"ent":174,"Ġwh":175,"au":176,"ther":177,"ur":178,"lo":179,"Ġnot":180,"Ġj":181,"be":182,"Ġwho":183,"one":184,"may":185,"Ġare":186,"Ġre":187,"Ġshall":188,"Ġyour":189,"Ġo":190,"us":191,"Ġwith":192,"Ġsa":193,"rom":194,"ere":195,"Ġhis":196,"Ġthey":197,"ght":198,"wh":199,"ach":200,"il":201,"Ġup":202,"ch":203,"Ġlord":204,"but":205,"ain":206,"let":207,"about":208,"Ġwas":209,"Ġhim":210,"nd":211,"ce":212,"Ġfrom":213,"if":214,"Ġgod":215,"Ġk":216,"owner":217,"pe":218,"Ġsay":219,"your":220,"ers":221,"Ġgo":222,"Ġn":223,"ru":224,"ons":225,"Ġas":226,"est":227,"ly":228,"ould":229,"loc":230,"Ġst":231,"ess":232,"Ġsaid":233,"ven":234,"ause":235,"Ġmay":236,"et":237,"my":238,"by":239,"Ġan":240,"ses":241,"Ġall":242,"ation":243,"ake":244,"Ġso":245,"op":246,"cause":247,"ies":248,"Ġme":249,"ul":250,"Ġmy":251,"our":252,"his":253,"Ġhas":254,"Ġwere":255,"fore":256,"each":257,"urn":258,"we":259,"ive":260,"Ġcom":261,"Ġ\"":262,"row":263,"sel":264,"now":265,"Ġon":266,"nt":267,"ud":268,"Ġman":269,"Ġtheir":270,"em":271,"ter":272,"rou":273,"ge":274,"Ġle":275,"ves":276,"ity":277,"him":278,"Ġli":279,"ind":280,"he":281,"pt":282,"ct":283,"down":284,"Ġbeen":285,"ust":286,"Ġhad":287,"Ġde":288,"ke":289,"that":290,"Ġam":291,"when":292,"ame":293,"rael":294,"ill":295,"un":296,"Ġthis":297,"ast":298,".\"":299,"ace":300,"end":301,"this":302,"Ġone":303,".<":304,"ong":305,"ight":306,"vo":307,"ard":308,"Ġno":309,"Ġal":310,"Ġby":311,"ich":312,"Ġif":313,"Ġover":314,"Ġout":315,"pp":316,"Ġwe":317,"ings":318,"ople":319,"ant":320,"Ġpe":321,"ah":322,"Ġsays":323,"ate":324,"ph":325,"um":326,"go":327,"ather":328,"Ġshould":329,"sed":330,"ath":331,"Ġwhich":332,"Ġdo":333,"way":334,"les":335,"Ġr":336,"qu":337,"Ġsons":338,"ie":339,"com":340,"because":341,"Ġho":342,"Ġcon":343,"ving":344,"ine":345,"ice":346,"Ġhand":347,"Ġat":348,"so":349,"ist":350,"Ġmo":351,"mo":352,"ouse":353,"how":354,"ose":355,"Ġthrow":356,"Ġpl":357,"there":358,"Ġbut":359,"them":360,"self":361,"Ġwhen":362,"Ġday":363,"Ġson":364,"ved":365,"Ġwould":366,"rough":367,"ish":368,"Ġpro":369,"Ġthere":370,"aking":371,"Ġor":372,"ade":373,"ne":374,"ely":375,"king":376,"hold":377,"Ġthrown":378,"Ġknow":379,"ans":380,"Ġher":381,"Ġupon":382,"ness":383,"earth":384,"Ġv":385,"Ġex":386,"oo":387,"ave":388,"Ġsp":389,"ered":390,"ound":391,"Ġch":392,"Ġpeople":393,"Ġoff":394,"god":395,"Ġmake":396,"Ġy":397,"nam":398,"reat":399,"ime":400,"voc":401,"Ġun":402,"os":403,"Ġear":404,"Ġowner":405,"ous":406,"ep":407,"ry":408,"gain":409,"Ġmade":410,"ment":411,"Ġhear":412,"Ġinto":413,"ire":414,"ked":415,"Ġad":416,"namely":417,"Ġsin":418,"Ġcome":419,"Ġaway":420,"Ġmen":421,"Ġlead":422,"ig":423,"ount":424,"Ġshe":425,"ted":426,"Ġjud":427,"Ġthose":428,"ied":429,"able":430,"ise":431,"Ġcall":432,"Ġne":433,"ance":434,"Ġent":435,"Ġjust":436,"therefore":437,"Ġlike":438,"Ġus":439,"ts":440,"nor":441,"Ġfather":442,"Ġwor":443,"esus":444,"Ġisrael":445,"Ġagain":446,"Ġbecause":447,"Ġbeh":448,"israel":449,"Ġland":450,"Ġking":451,"la":452,"Ġab":453,"very":454,"nder":455,"Ġgive":456,"turn":457,"oul":458,"irst":459,"word":460,"Ġdown":461,"uch":462,"Ġbac":463,"Ġtake":464,"then":465,"Ġearth":466,"ide":467,"Ġco":468,"Ġacc":469,"ip":470,"ale":471,"aul":472,"into":473,"ag":474,"aven":475,"man":476,"ning":477,"ren":478,"Ġsee":479,"Ġser":480,"ks":481,"Ġthings":482,"Ġspe":483,"sh":484,"Ġpre":485,"through":486,"ations":487,"Ġthese":488,"Ġru":489,"yes":490,"hand":491,"Ġwhat":492,"led":493,"Ġbefore":494,"iv":495,"Ġword":496,"Ġlif":497,"ai":498,"Ġri":499,"Ġhouse":500,"gy":501,"rother":502,"Ġway":503,"ting":504,"gypt":505,"Ġturn":506,"alf":507,"Ġen":508,"ful":509,"Ġsaying":510,"Ġalso":511,"sons":512,"ure":513,"aulus":514,"lor":515,"ult":516,"Ġgreat":517,"Ġlo":518,"aught":519,"say":520,"ree":521,"de":522,"ile":523,"day":524,"Ġtru":525,"riest":526,"come":527,"Ġplace":528,"son":529,"ore":530,"Ġaf":531,"Ġdis":532,"just":533,"iz":534,"Ġagainst":535,"con":536,"Ġapp":537,"Ġtime":538,"Ġwat":539,"read":540,"part":541,"ated":542,"ring":543,"Ġdes":544,"ign":545,"li":546,"Ġits":547,"ink":548,"?<":549,"house":550,"Ġgoes":551,"reng":552,"tri":553,"Ġfe":554,"Ġeven":555,"Ġour":556,"Ġim":557,"ue":558,"thing":559,"Ġnor":560,"tle":561,"ountain":562,"ering":563,"Ġrem":564,"other":565,"Ġpr":566,"ower":567,"wo":568,"saying":569,"ub":570,"Ġro":571,"Ġunder":572,"ities":573,"Ġput":574,"yone":575,"spe":576,"Ġeat":577,"Ġgi":578,"ward":579,"Ġinh":580,"Ġthen":581,"lood":582,"near":583,"behold":584,"abit":585,"ae":586,"ang":587,"sp":588,"less":589,"ect":590,"Ġper":591,"dom":592,"pro":593,"erus":594,"ears":595,"alem":596,"erusalem":597,"anc":598,"igh":599,"ite":600,"Ġset":601,"Ġsent":602,"thes":603,"Ġegypt":604,"aies":605,"Ġra":606,"whole":607,"Ġbehalf":608,"what":609,"ck":610,"ern":611,"Ġcar":612,"ty":613,"ond":614,"Ġgave":615,"ok":616,"where":617,"ary":618,"Ġbu":619,"orn":620,"do":621,"ever":622,"ob":623,"oll":624,"most":625,"ib":626,"Ġjesus":627,"ap":628,"vers":629,"sw":630,"Ġcalled":631,"Ġdid":632,"Ġfear":633,"Ġspeak":634,"Ġlet":635,"aw":636,"Ġsaw":637,"ened":638,"ser":639,"people":640,"comm":641,"Ġable":642,"Ġ'":643,"ude":644,"lar":645,"Ġheaven":646,"Ġback":647,"red":648,"Ġcomm":649,"cend":650,"ull":651,"Ġfall":652,"Ġheart":653,"Ġadv":654,"lory":655,"hear":656,"Ġbeg":657,"Ġthrough":658,"Ġsc":659,"rif":660,"Ġamong":661,"Ġevery":662,"gether":663,"Ġserv":664,"Ġwhom":665,"Ġmoses":666,"Ġeach":667,"Ġpos":668,"ird":669,"itude":670,"Ġname":671,"alone":672,"Ġjudg":673,"outh":674,"Ġpriest":675,"Ġabout":676,"lea":677,"ail":678,"Ġres":679,"bes":680,"anyone":681,"Ġburn":682,"Ġtogether":683,"Ġbrother":684,"Ġtri":685,"Ġstand":686,"ments":687,"thus":688,"its":689,"Ġrece":690,"selves":691,"Ġconf":692,"first":693,"jo":694,"ber":695,"Ġsend":696,"well":697,"co":698,"Ġcl":699,"Ġsoul":700,"Ġdays":701,"will":702,"himself":703,"Ġbehold":704,"Ġgood":705,"ants":706,"ates":707,"going":708,"Ġansw":709,"Ġjo":710,"av":711,"ling":712,"ions":713,"Ġcons":714,"voice":715,"Ġhands":716,"Ġfill":717,"pl":718,"Ġuped":719,"Ġafter":720,"ple":721,"anct":722,"Ġinhabit":723,"stand":724,"rength":725,"Ġcity":726,"rist":727,"jesus":728,"lean":729,"ort":730,"Ġfire":731,"Ġheard":732,"ying":733,"Ġbecome":734,"Ġz":735,"Ġnear":736,"Ġown":737,"Ġsw":738,"acing":739,"phet":740,"xt":741,"rong":742,"Ġreturn":743,"father":744,"per":745,"Ġinst":746,"?\"":747,"Ġwom":748,"soul":749,"ild":750,"iah":751,"name":752,"ass":753,"uc":754,"Ġph":755,"Ġang":756,"Ġlife":757,"Ġoffer":758,"ret":759,"air":760,"rink":761,"acrif":762,"Ġbo":763,"ousand":764,"Ġhapp":765,"are":766,"ished":767,"ove":768,"und":769,"Ġgiven":770,"making":771,"Ġwal":772,"den":773,"lon":774,"arm":775,"ol":776,"Ġdie":777,"imon":778,"Ġwent":779,"Ġpers":780,"Ġbehind":781,"Ġmid":782,"Ġcame":783,"ollow":784,"facing":785,"rought":786,"roy":787,"emies":788,"Ġwords":789,"Ġaccord":790,"Ġfirst":791,"Ġarri":792,"acob":793,"aron":794,"rit":795,"good":796,"ool":797,"vil":798,"Ġother":799,"bre":800,"ious":801,"Ġseen":802,"head":803,"Ġlaw":804,"aken":805,"Ġmult":806,"rem":807,"isdom":808,"ape":809,"Ġcont":810,"aughter":811,"Ġremain":812,"Ġface":813,"irc":814,"aith":815,"speaking":816,"mon":817,"Ġhimself":818,"ood":819,"Ġany":820,"Ġmuch":821,"large":822,"Ġpower":823,"fe":824,"Ġwhere":825,"Ġord":826,"ook":827,"Ġmany":828,"Ġsame":829,"ents":830,"Ġsil":831,"moses":832,"Ġclo":833,"Ġeyes":834,"amp":835,"Ġforth":836,"jud":837,"Ġhaving":838,"ruct":839,".'":840,"Ġsu":841,"vered":842,"Ġdeath":843,"Ġbrought":844,"Ġsea":845,"Ġreceive":846,"Ġgen":847,"aby":848,"Ġhold":849,"me":850,"Ġqu":851,"Ġsanct":852,"ittle":853,"ors":854,"Ġnow":855,"ned":856,"ark":857,"abylon":858,"Ġanswered":859,"ried":860,"po":861,"erc":862,"oples":863,"Ġtest":864,"Ġtwo":865,"Ġpart":866,"Ġdel":867,"als":868,"Ġvoice":869,"Ġdiv":870,"Ġanother":871,"Ġfl":872,"round":873,"raw":874,"commun":875,"Ġevil":876,"ised":877,"Ġsight":878,"Ġhal":879,"ict":880,"ought":881,"Ġadvanc":882,"wat":883,"Ġdest":884,"willing":885,"mans":886,"ield":887,"Ġlong":888,"sess":889,"under":890,"fl":891,"esses":892,"ara":893,"Ġspir":894,"bad":895,"twe":896,"tween":897,"Ġbring":898,"Ġcan":899,"oh":900,"ence":901,"Ġob":902,"Ġappro":903,"els":904,"Ġgold":905,"ome":906,"Ġyet":907,"gr":908,"Ġbre":909,"Ġpo":910,"Ġcast":911,"Ġholy":912,"Ġblood":913,"ars":914,"iqu":915,"ins":916,"Ġthan":917,"imb":918,"Ġhead":919,"Ġmight":920,"Ġunwilling":921,"Ġrest":922,"ros":923,"Ġenter":924,"Ġglory":925,"her":926,"tain":927,"Ġmountain":928,"Ġtoward":929,"Ġled":930,"Ġjerusalem":931,"Ġkill":932,"ising":933,"Ġjudah":934,"Ġaccording":935,"wor":936,"Ġvery":937,"Ġfar":938,"Ġfollow":939,"aving":940,"irth":941,"med":942,"laim":943,"Ġperson":944,"ived":945,"lessed":946,"az":947,"mountain":948,"Ġcomes":949,"ff":950,"Ġchrist":951,"Ġmast":952,"inning":953,"ick":954,"ched":955,"ified":956,"Ġfathers":957,"Ġseiz":958,"int":959,"ntil":960,"Ġdescend":961,"ten":962,"Ġsto":963,"ones":964,"Ġiniqu":965,"brother":966,"rah":967,"wise":968,"Ġsacrif":969,"ages":970,"ari":971,"before":972,"Ġspirit":973,"atter":974,"Ġgr":975,"Ġmasters":976,"Ġact":977,"Ġouted":978,"jerusalem":979,"Ġpour":980,"ife":981,"Ġpeace":982,"Ġac":983,"Ġgu":984,"sen":985,"Ġsword":986,"ites":987,"apt":988,"Ġbabylon":989,"Ġarm":990,"Ġimp":991,"ible":992,"Ġyears":993,"Ġuntil":994,"Ġlive":995,"Ġje":996,"Ġseven":997,"Ġend":998,"tern":999,"Ġdisc":1000,"full":1001,"fair":1002,"Ġmidst":1003,"Ġtw":1004,"Ġspo":1005,"Ġrep":1006,"Ġke":1007,"right":1008,"undred":1009,"avid":1010,"time":1011,"law":1012,"Ġhow":1013,"Ġsit":1014,"she":1015,"Ġtook":1016,"Ġprophet":1017,"Ġhundred":1018,"ex":1019,"ush":1020,"Ġtherefore":1021,"ens":1022,"attle":1023,"Ġwork":1024,"Ġwater":1025,"Ġshow":1026,"Ġclimb":1027,"age":1028,"ines":1029,"amb":1030,"emple":1031,"Ġresp":1032,"Ġmouth":1033,"teach":1034,"tend":1035,"judah":1036,"daies":1037,"ches":1038,"side":1039,"Ġabl":1040,"Ġdone":1041,"next":1042,"Ġcut":1043,"Ġunderstand":1044,"ase":1045,"Ġabove":1046,"blood":1047,"Ġmerc":1048,"sts":1049,"Ġhonor":1050,"Ġcommand":1051,"lave":1052,"ran":1053,"up":1054,"abb":1055,"alls":1056,"Ġdist":1057,"ift":1058,"wom":1059,"thed":1060,"empt":1061,"imony":1062,"Ġwife":1063,"Ġlittle":1064,"ross":1065,"claim":1066,"Ġdrink":1067,"Ġjustice":1068,"Ġmens":1069,"Ġpray":1070,"ble":1071,"Ġhalves":1072,"ats":1073,"Ġtr":1074,"aughters":1075,"circ":1076,"arch":1077,"Ġplac":1078,"Ġuping":1079,"ouses":1080,"Ġenemies":1081,"bound":1082,"ix":1083,"Ġmore":1084,"Ġbel":1085,"late":1086,"Ġnight":1087,"ft":1088,"vessel":1089,"riend":1090,"Ġinstruct":1091,"Ġbless":1092,"shape":1093,"raise":1094,"heart":1095,"Ġhappen":1096,"div":1097,"ner":1098,"ating":1099,"Ġdev":1100,"Ġprepar":1101,"Ġaaron":1102,"Ġgoing":1103,"eps":1104,"from":1105,"ither":1106,"iew":1107,"isten":1108,"tent":1109,"Ġbrothers":1110,"clean":1111,"tru":1112,"sent":1113,"Ġdestroy":1114,"Ġwaters":1115,"asure":1116,"Ġentire":1117,"araoh":1118,"Ġgather":1119,"Ġapproach":1120,"alm":1121,"Ġbread":1122,"ced":1123,"Ġfam":1124,"Ġfound":1125,"rag":1126,"while":1127,"Ġdoes":1128,"Ġleaders":1129,"ps":1130,"Ġcause":1131,"akes":1132,"sible":1133,"Ġwoman":1134,"Ġwell":1135,"view":1136,"Ġsome":1137,"Ġvis":1138,"words":1139,"get":1140,"ken":1141,"Ġaw":1142,"Ġstrength":1143,"need":1144,"seph":1145,"ined":1146,"Ġwhoever":1147,"Ġtaken":1148,"Ġpriests":1149,"'s":1150,"ia":1151,"Ġmother":1152,"breath":1153,"hind":1154,"Ġfaith":1155,"Ġthousand":1156,"imes":1157,"Ġwithout":1158,"asts":1159,"tribes":1160,"like":1161,"Ġpossess":1162,"raham":1163,"te":1164,"Ġbirth":1165,"Ġworks":1166,"priest":1167,"much":1168,"Ġcities":1169,"Ġtab":1170,"Ġmultitude":1171,"lesh":1172,"Ġorder":1173,"yond":1174,"eration":1175,"nearly":1176,"iel":1177,"why":1178,"Ġexal":1179,"Ġflesh":1180,"Ġappear":1181,"ws":1182,"behind":1183,"Ġservant":1184,"Ġadvanced":1185,"bless":1186,"acle":1187,"Ġgra":1188,"unfair":1189,"Ġbacked":1190,"mall":1191,"nesses":1192,"ron":1193,"Ġsub":1194,"eyes":1195,"Ġjudgment":1196,"Ġtabern":1197,"take":1198,"Ġwisdom":1199,"ices":1200,"Ġmans":1201,"Ġcarry":1202,"community":1203,"Ġrespond":1204,"gar":1205,"Ġpar":1206,"Ġhid":1207,"Ġnations":1208,"lad":1209,"ot":1210,"af":1211,"Ġfell":1212,"urb":1213,"Ġleave":1214,"between":1215,"Ġtruth":1216,"iving":1217,"Ġcho":1218,"Ġarrived":1219,"ith":1220,"Ġbl":1221,"convers":1222,"res":1223,"Ġkind":1224,"Ġfour":1225,"Ġwhile":1226,"Ġstrong":1227,"justice":1228,"Ġblessed":1229,"Ġaround":1230,"Ġcoll":1231,"bo":1232,"ng":1233,"sec":1234,"strength":1235,"Ġalong":1236,"Ġright":1237,"Ġspoke":1238,"Ġoffered":1239,"Ġrise":1240,"Ġthemselves":1241,"Ġconce":1242,"Ġpossible":1243,"ilt":1244,"Ġiniquity":1245,"iing":1246,"Ġpass":1247,"heaven":1248,"Ġdef":1249,"tar":1250,"Ġlook":1251,"Ġpeoples":1252,"acting":1253,"Ġche":1254,"oney":1255,"ma":1256,"pet":1257,"Ġentered":1258,"Ġspeaking":1259,"sy":1260,"glory":1261,"Ġsle":1262,"Ġguard":1263,"Ġmercy":1264,"Ġdaughter":1265,"Ġtou":1266,"atever":1267,"Ġyear":1268,"Ġkeep":1269,"ual":1270,"Ġcomp":1271,"Ġwalk":1272,"Ġsilver":1273,"Ġinc":1274,"Ġmost":1275,"Ġsinning":1276,"even":1277,"Ġthus":1278,"rows":1279,"Ġkingdom":1280,"Ġdiscip":1281,"arly":1282,"Ġhigh":1283,"Ġthree":1284,"Ġop":1285,"Ġlove":1286,"pos":1287,"ody":1288,"icked":1289,"Ġwithin":1290,"fer":1291,"Ġlift":1292,"oun":1293,"Ġwind":1294,"Ġsat":1295,"aint":1296,"Ġovered":1297,"Ġfield":1298,"Ġbeing":1299,"Ġlight":1300,"ds":1301,"oolish":1302,"amin":1303,"umb":1304,"Ġbuilt":1305,"ye":1306,"Ġfle":1307,"ordan":1308,"slave":1309,"Ġsun":1310,"umber":1311,"wicked":1312,"Ġdri":1313,"Ġpas":1314,"phra":1315,"Ġworld":1316,"ack":1317,"ally":1318,"Ġtestimony":1319,"ias":1320,"tter":1321,"ition":1322,"Ġglad":1323,"Ġteach":1324,"Ġonly":1325,"Ġproclaim":1326,"Ġstood":1327,"egypt":1328,"uary":1329,"Ġhor":1330,"irl":1331,"riting":1332,"du":1333,"ead":1334,"jacob":1335,"know":1336,"sea":1337,"cept":1338,"Ġcollect":1339,"ene":1340,"Ġpit":1341,"erem":1342,"su":1343,"Ġsur":1344,"Ġjudge":1345,"Ġserve":1346,"Ġservants":1347,"Ġfilled":1348,"Ġtrans":1349,"cked":1350,"ertain":1351,"ided":1352,"ury":1353,"Ġkings":1354,"Ġhope":1355,"Ġdeli":1356,"Ġred":1357,"new":1358,"Ġscatter":1359,"Ġfail":1360,"Ġlisten":1361,"sc":1362,"Ġmon":1363,"Ġsacrifice":1364,"Ġdevour":1365,"Ġbeat":1366,"reet":1367,"Ġhaves":1368,"Ġem":1369,"Ġwine":1370,"rog":1371,"ify":1372,"Ġinstructed":1373,"divine":1374,"Ġtabernacle":1375,"phraim":1376,"irm":1377,"essing":1378,"ger":1379,"Ġplea":1380,"turning":1381,"yet":1382,"Ġwilling":1383,"Ġtruly":1384,"ernal":1385,"bu":1386,"Ġmar":1387,"Ġpur":1388,"pity":1389,"third":1390,"Ġsal":1391,"Ġtoed":1392,"noun":1393,"Ġpraise":1394,"ship":1395,"Ġtrust":1396,"inking":1397,"iled":1398,"Ġrules":1399,"Ġacqu":1400,"Ġturned":1401,"burn":1402,"Ġfru":1403,"Ġdraw":1404,"enty":1405,"Ġsinned":1406,"Ġinher":1407,"Ġsl":1408,"Ġclean":1409,"oken":1410,"old":1411,"iness":1412,"Ġstru":1413,"Ġspoken":1414,"spring":1415,"ictim":1416,"bul":1417,"thousand":1418,"Ġtemple":1419,"Ġaltar":1420,"ian":1421,"na":1422,"Ġdark":1423,"Ġhel":1424,"Ġsearch":1425,"Ġjacob":1426,"Ġdeser":1427,"Ġpharaoh":1428,"til":1429,"Ġgate":1430,"Ġreg":1431,"Ġleft":1432,"wood":1433,"zar":1434,"imil":1435,"ular":1436,"Ġwra":1437,"Ġbear":1438,"remain":1439,"Ġcry":1440,"Ġascend":1441,"give":1442,"Ġthink":1443,"Ġgar":1444,"Ġold":1445,"ongue":1446,"themselves":1447,"Ġcle":1448,"Ġcount":1449,"lead":1450,"ows":1451,"Ġtimes":1452,"ams":1453,"Ġneed":1454,"Ġboth":1455,"aan":1456,"ash":1457,"Ġcur":1458,"Ġlab":1459,"irty":1460,"Ġhosts":1461,"Ġarmies":1462,"abbath":1463,"seat":1464,"ceed":1465,"Ġliving":1466,"rengthen":1467,"after":1468,"Ġstri":1469,"Ġawa":1470,"owing":1471,"ough":1472,"Ġmaking":1473,"iece":1474,"Ġreve":1475,"ching":1476,"Ġadvance":1477,"Ġmonth":1478,"Ġfamil":1479,"eternal":1480,"Ġconsum":1481,"fill":1482,"fire":1483,"brothers":1484,"Ġimpious":1485,"ides":1486,"ains":1487,"Ġlie":1488,"unfairness":1489,"Ġfree":1490,"Ġprom":1491,"owed":1492,"Ġwhe":1493,"Ġgods":1494,"Ġnew":1495,"ech":1496,"pre":1497,"Ġknows":1498,"blessing":1499,"aut":1500,"having":1501,"ians":1502,"Ġchild":1503,"ledge":1504,"Ġtribes":1505,"Ġneither":1506,"gra":1507,"light":1508,"ped":1509,"Ġstruck":1510,"mult":1511,"alth":1512,"Ġnothing":1513,"Ġconsid":1514,"bread":1515,"wisdom":1516,"aries":1517,"reed":1518,"Ġes":1519,"ately":1520,"strong":1521,"Ġcoven":1522,"cover":1523,"ces":1524,"foo":1525,"sword":1526,"ense":1527,"Ġoil":1528,"Ġopp":1529,"ainted":1530,"Ġoffering":1531,"gu":1532,"ged":1533,"ister":1534,"Ġremem":1535,"vessels":1536,"make":1537,"Ġcreat":1538,"water":1539,"Ġables":1540,"rie":1541,"Ġdec":1542,"Ġcontin":1543,"Ġresponded":1544,"fear":1545,"Ġwicked":1546,"Ġce":1547,"Ġten":1548,"eping":1549,"Ġswine":1550,"Ġcovenant":1551,"br":1552,"ys":1553,"Ġbuild":1554,"apiece":1555,"woman":1556,"saint":1557,"Ġpresent":1558,"prophet":1559,"wife":1560,"Ġcertain":1561,"Ġadd":1562,"Ġfeet":1563,"Ġflee":1564,"att":1565,"ason":1566,"Ġill":1567,"Ġcover":1568,"Ġacquainted":1569,"power":1570,"Ġsuch":1571,"aled":1572,"Ġstone":1573,"ises":1574,"Ġwash":1575,"vi":1576,"roke":1577,"iful":1578,"Ġinherit":1579,"mor":1580,"Ġcrow":1581,"Ġetern":1582,"bar":1583,"great":1584,"put":1585,"sing":1586,"Ġdwell":1587,"Ġtre":1588,"Ġgentil":1589,"Ġgentiles":1590,"pr":1591,"Ġdaughters":1592,"lying":1593,"Ġpoor":1594,"Ġfoolish":1595,"Ġbacking":1596,"Ġmultip":1597,"small":1598,"Ġfight":1599,"Ġthird":1600,"Ġrejo":1601,"Ġones":1602,"oth":1603,"opular":1604,"Ġdead":1605,"coming":1606,"Ġburnt":1607,"Ġconfess":1608,"Ġyourself":1609,"Ġovering":1610,"trial":1611,"Ġmountains":1612,"Ġprepared":1613,"ient":1614,"Ġbr":1615,"Ġstrengthen":1616,"Ġabraham":1617,"Ġraise":1618,"Ġsupp":1619,"thousands":1620,"hn":1621,"Ġcamp":1622,"Ġbelie":1623,"faith":1624,"ls":1625,"pri":1626,"Ġmind":1627,"Ġwise":1628,"allow":1629,"waies":1630,"Ġfind":1631,"Ġcor":1632,"ways":1633,"orns":1634,"Ġangel":1635,"Ġsuff":1636,"Ġsep":1637,"Ġways":1638,"death":1639,"work":1640,"ald":1641,"cess":1642,"ison":1643,"gods":1644,"iet":1645,"rest":1646,"Ġwa":1647,"ited":1648,"lem":1649,"Ġdowned":1650,"Ġsanctuary":1651,"Ġexalted":1652,"Ġbar":1653,"Ġthought":1654,"only":1655,"whoever":1656,"Ġcovered":1657,"iae":1658,"ication":1659,"bel":1660,"bear":1661,"david":1662,"Ġer":1663,"Ġside":1664,"Ġbes":1665,"Ġstill":1666,"ets":1667,"sinning":1668,"Ġdem":1669,"Ġdavid":1670,"Ġthemself":1671,"ounded":1672,"Ġinstead":1673,"royal":1674,"lied":1675,"writing":1676,"Ġmakes":1677,"ured":1678,"peoples":1679,"Ġstanding":1680,"boundary":1681,"multitude":1682,"cl":1683,"duc":1684,"hu":1685,"christ":1686,"Ġsitting":1687,"dle":1688,"sil":1689,"Ġwrit":1690,"Ġsing":1691,"Ġtop":1692,"Ġbehinded":1693,"ased":1694,"ging":1695,"Ġwid":1696,"Ġter":1697,"Ġplaced":1698,"aac":1699,"houses":1700,"above":1701,"amen":1702,"Ġrel":1703,"Ġdisciples":1704,"mouth":1705,"ns":1706,"Ġage":1707,"Ġanyone":1708,"Ġdivided":1709,"Ġwood":1710,"Ġyoung":1711,"Ġephraim":1712,"Ġsins":1713,"ize":1714,"ners":1715,"Ġwhatever":1716,"Ġannoun":1717,"pher":1718,"Ġtribe":1719,"aph":1720,"aaron":1721,"nothing":1722,"Ġlest":1723,"uring":1724,"pped":1725,"Ġsign":1726,"Ġrose":1727,"waters":1728,"ept":1729,"Ġfriend":1730,"ures":1731,"Ġreign":1732,"pect":1733,"Ġstret":1734,"Ġprophets":1735,"life":1736,"aniel":1737,"Ġsabbath":1738,"Ġte":1739,"Ġtent":1740,"Ġwhole":1741,"phes":1742,"Ġwatch":1743,"Ġsurround":1744,"Ġfruit":1745,"ges":1746,"Ġsix":1747,"Ġwild":1748,"Ġcapt":1749,"alle":1750,"peace":1751,"locau":1752,"asting":1753,"Ġoffspring":1754,"Ġlifted":1755,"Ġlonger":1756,"Ġjews":1757,"ives":1758,"send":1759,"Ġholocau":1760,"Ġleader":1761,"Ġsheep":1762,"athes":1763,"tr":1764,"throw":1765,"beyond":1766,"Ġnorth":1767,"sla":1768,"ze":1769,"enemies":1770,"Ġdepar":1771,"Ġknown":1772,"poor":1773,"can":1774,"popular":1775,"rang":1776,"oud":1777,"Ġbody":1778,"ala":1779,"vert":1780,"Ġforever":1781,"joy":1782,"Ġsilent":1783,"Ġseize":1784,"conversation":1785,"diing":1786,"seed":1787,"rew":1788,"Ġpri":1789,"Ġlamb":1790,"Ġrequ":1791,"Ġreason":1792,"Ġuponed":1793,"Ġwrath":1794,"Ġrule":1795,"mer":1796,"Ġwant":1797,"Ġtree":1798,"ires":1799,"Ġsew":1800,"Ġwhose":1801,"Ġperish":1802,"Ġmor":1803,"Ġforward":1804,"Ġcomplet":1805,"here":1806,"year":1807,"seing":1808,"Ġhere":1809,"Ġpet":1810,"Ġaccom":1811,"Ġaffl":1812,"Ġpossession":1813,"Ġever":1814,"Ġuse":1815,"Ġaccount":1816,"Ġaccept":1817,"hands":1818,"ivity":1819,"angel":1820,"Ġconceived":1821,"daughter":1822,"Ġcr":1823,"Ġeld":1824,"ament":1825,"Ġhearing":1826,"Ġloved":1827,"commend":1828,"Ġheavens":1829,"Ġsleep":1830,"Ġdesert":1831,"bor":1832,"ints":1833,"Ġfoo":1834,"ired":1835,"aked":1836,"Ġread":1837,"Ġonce":1838,"Ġhappened":1839,"Ġtwenty":1840,"ec":1841,"Ġcarried":1842,"Ġwritten":1843,"des":1844,"eed":1845,"over":1846,"Ġdece":1847,"aps":1848,"Ġgeneration":1849,"Ġpoured":1850,"lock":1851,"ances":1852,"Ġdisturb":1853,"acles":1854,"Ġox":1855,"Ġalive":1856,"answ":1857,"petual":1858,"bulation":1859,"imilarly":1860,"oin":1861,"ision":1862,"upon":1863,"rising":1864,"vation":1865,"orr":1866,"Ġfive":1867,"Ġfull":1868,"Ġwhy":1869,"ourne":1870,"indeed":1871,"door":1872,"communities":1873,"bl":1874,"ial":1875,"wine":1876,"years":1877,"anan":1878,"Ġhar":1879,"Ġglor":1880,"adness":1881,"Ġhidden":1882,"secr":1883,"Ġnumber":1884,"speak":1885,"proach":1886,"dwell":1887,"high":1888,"oil":1889,"ug":1890,"Ġlim":1891,"Ġeye":1892,"umc":1893,"Ġneigh":1894,"Ġjoy":1895,"foots":1896,"hua":1897,"Ġmorning":1898,"friend":1899,"kin":1900,"Ġupside":1901,"Ġfeed":1902,"Ġbegan":1903,"Ġreturned":1904,"Ġseized":1905,"priests":1906,"Ġappeared":1907,"silver":1908,"battle":1909,"see":1910,"Ġben":1911,"Ġbore":1912,"Ġind":1913,"Ġfore":1914,"Ġouting":1915,"Ġfallen":1916,"Ġplaces":1917,"Ġtouched":1918,"sacrif":1919,"eng":1920,"Ġbeasts":1921,"orders":1922,"Ġleaving":1923,"Ġvir":1924,"Ġenc":1925,"Ġtogethers":1926,"Ġawaied":1927,"draw":1928,"sion":1929,"Ġed":1930,"beg":1931,"Ġprophes":1932,"Ġknowing":1933,"osue":1934,"ignation":1935,"Ġinhabitants":1936,"Ġkilled":1937,"Ġaccompl":1938,"val":1939,"Ġfine":1940,"Ġarmy":1941,"Ġstones":1942,"Ġriver":1943,"ourney":1944,"app":1945,"ier":1946,"Ġcoun":1947,"Ġport":1948,"Ġask":1949,"Ġraised":1950,"iam":1951,"Ġcub":1952,"Ġsave":1953,"Ġprov":1954,"medi":1955,"Ġvisit":1956,"giving":1957,"ject":1958,"raid":1959,"Ġsaints":1960,"Ġups":1961,"Ġbreak":1962,"Ġchildren":1963,"Ġest":1964,"itter":1965,"Ġalone":1966,"Ġdelivered":1967,"Ġregion":1968,"Ġlabor":1969,"answering":1970,"call":1971,"dis":1972,"equ":1973,"Ġmag":1974,"Ġbetween":1975,"Ġwithed":1976,"Ġlay":1977,"Ġjos":1978,"Ġcoming":1979,"Ġafraid":1980,"aei":1981,"mediately":1982,"ining":1983,"Ġfood":1984,"which":1985,"maid":1986,"Ġstrike":1987,"rect":1988,"Ġcour":1989,"Ġel":1990,"ames":1991,"Ġsaved":1992,"Ġrising":1993,"sol":1994,"Ġunto":1995,"Ġears":1996,"teaching":1997,"Ġchoose":1998,"Ġdefiled":1999,"Ġcirc":2000,"Ġdaies":2001,"alse":2002,"height":2003,"likewise":2004,"band":2005,"bed":2006,"nat":2007,"Ġswe":2008,"esh":2009,"Ġdrag":2010,"earthes":2011,"garments":2012,"oseph":2013,"rite":2014,"use":2015,"Ġseek":2016,"Ġspeaks":2017,"Ġopen":2018,"ength":2019,"unity":2020,"Ġdoor":2021,"Ġmoab":2022,"Ġmoved":2023,"Ġvine":2024,"Ġexam":2025,"Ġanything":2026,"popularity":2027,"haps":2028,"lift":2029,"rone":2030,"tect":2031,"Ġmin":2032,"lect":2033,"Ġsec":2034,"ific":2035,"Ġevening":2036,"Ġscri":2037,"grace":2038,"Ġthough":2039,"iding":2040,"omin":2041,"Ġash":2042,"Ġlev":2043,"hearing":2044,"Ġothers":2045,"today":2046,"Ġbeaut":2047,"Ġcross":2048,"Ġund":2049,"Ġvictim":2050,"Ġbuy":2051,"Ġremained":2052,"keness":2053,"Ġsepar":2054,"alley":2055,"asing":2056,"Ġgreet":2057,"rupt":2058,"Ġsold":2059,"ending":2060,"Ġunclean":2061,"mb":2062,"these":2063,"Ġmour":2064,"Ġps":2065,"Ġloo":2066,"boundaries":2067,"der":2068,"fall":2069,"think":2070,"Ġfury":2071,"Ġgirl":2072,"stroke":2073,"Ġfors":2074,"Ġass":2075,"household":2076,"Ġjudges":2077,"Ġze":2078,"Ġchew":2079,"Ġsalvation":2080,"Ġinheritance":2081,"lemn":2082,"Ġbur":2083,"rium":2084,"ung":2085,"Ġdarkness":2086,"rief":2087,"dem":2088,"daughters":2089,"test":2090,"off":2091,"Ġinter":2092,"Ġtra":2093,"Ġexp":2094,"aged":2095,"Ġsanctified":2096,"syri":2097,"Ġcontinu":2098,"came":2099,"dened":2100,"Ġhouses":2101,"Ġfalse":2102,"Ġseed":2103,"Ġjoseph":2104,"Ġwomen":2105,"Ġcanaan":2106,"Ġgrain":2107,"cer":2108,"night":2109,"ox":2110,"ots":2111,"ram":2112,"erations":2113,"Ġbro":2114,"Ġbound":2115,"Ġshape":2116,"rise":2117,"usband":2118,"rust":2119,"Ġlips":2120,"Ġruin":2121,"Ġcarves":2122,"Ġbeginning":2123,"Ġinhabited":2124,"Ġgathered":2125,"mac":2126,"Ġwished":2127,"Ġfast":2128,"Ġgone":2129,"amed":2130,"Ġrelea":2131,"Ġrun":2132,"deb":2133,"ilee":2134,"serve":2135,"covered":2136,"Ġjordan":2137,"Ġlived":2138,"ointed":2139,"aid":2140,"rance":2141,"wid":2142,"Ġhur":2143,"Ġborn":2144,"Ġful":2145,"Ġbeyond":2146,"vel":2147,"possess":2148,"Ġcounsel":2149,"Ġfulfill":2150,"made":2151,"Ġhard":2152,"Ġfled":2153,"Ġreceived":2154,"standing":2155,"Ġtwel":2156,"Ġempt":2157,"Ġcubits":2158,"cur":2159,"fect":2160,"Ġfif":2161,"honor":2162,"ulate":2163,"Ġoning":2164,"Ġlot":2165,"conf":2166,"Ġdrive":2167,"Ġscattered":2168,"dist":2169,"mit":2170,"with":2171,"Ġhum":2172,"Ġgates":2173,"stone":2174,"Ġmeet":2175,"Ġplant":2176,"Ġknowledge":2177,"Ġsince":2178,"truth":2179,"kill":2180,"andon":2181,"Ġwall":2182,"Ġwond":2183,"Ġheld":2184,"ute":2185,"Ġlear":2186,"Ġzion":2187,",'":2188,"temple":2189,"Ġwar":2190,"locks":2191,"udents":2192,"ishing":2193,"Ġextend":2194,"Ġene":2195,"Ġdivide":2196,"Ġcreated":2197,"Ġholocaust":2198,"hem":2199,"little":2200,"ming":2201,"sanct":2202,"vest":2203,"Ġbecame":2204,"Ġdied":2205,"Ġarrog":2206,"Ġmeasure":2207,"ante":2208,"Ġmove":2209,"wards":2210,"Ġeverything":2211,"souls":2212,"header":2213,"Ġunderstanding":2214,"knowing":2215,"Ġelders":2216,"Ġjoshua":2217,"Ġenemy":2218,"aal":2219,"cks":2220,"Ġast":2221,"Ġforn":2222,"Ġjerem":2223,"foreign":2224,"Ġswore":2225,"Ġphar":2226,"Ġclose":2227,"Ġobl":2228,"mountains":2229,"again":2230,"fine":2231,"Ġbeth":2232,"asc":2233,"Ġinde":2234,"run":2235,"Ġbreath":2236,"Ġgarments":2237,"Ġoppos":2238,"duced":2239,"slaves":2240,"Ġcrush":2241,"Ġjeremiah":2242,"Ġmount":2243,"Ġfat":2244,"Ġget":2245,"Ġisaac":2246,"ently":2247,"Ġprop":2248,"joying":2249,"Ġpsalm":2250,"ax":2251,"born":2252,"ror":2253,"thy":2254,"lech":2255,"Ġthing":2256,"ifying":2257,"emed":2258,"athan":2259,"Ġanswer":2260,"heavens":2261,"lum":2262,"enjoying":2263,"Ġlamp":2264,"ards":2265,"mother":2266,"Ġwalked":2267,"Ġbelieve":2268,"Ġneighbor":2269,"maculate":2270,"Ġeli":2271,"Ġdepart":2272,"aste":2273,"Ġsprink":2274,"turned":2275,"perpetual":2276,"Ġtell":2277,"Ġindeed":2278,"aheader":2279,"ben":2280,"car":2281,"land":2282,"aying":2283,"Ġcried":2284,"Ġpity":2285,"Ġassyri":2286,"ief":2287,"Ġhol":2288,"Ġworked":2289,"circle":2290,"Ġestabl":2291,"blessed":2292,"dr":2293,"ory":2294,"orted":2295,"generation":2296,"alt":2297,"Ġanim":2298,"inding":2299,"Ġjudgments":2300,"area":2301,"conversations":2302,"Ġrejoice":2303,"mid":2304,"Ġvessels":2305,"Ġhusband":2306,"Ġaside":2307,"Ġdesol":2308,"Ġclothed":2309,"ban":2310,"hel":2311,"Ġwand":2312,"itting":2313,"tom":2314,"asses":2315,"reg":2316,"Ġtongue":2317,"Ġobe":2318,"owners":2319,"Ġloves":2320,"Ġcommunity":2321,"Ġopposite":2322,"sin":2323,"Ġmal":2324,"ream":2325,"Ġpast":2326,"order":2327,"tribe":2328,"fathers":2329,"fully":2330,"Ġpitied":2331,"dirty":2332,"follow":2333,"food":2334,"kels":2335,"Ġhated":2336,"Ġfreed":2337,"Ġthrone":2338,"Ġoned":2339,"remem":2340,"Ġdescended":2341,"Ġcommandments":2342,"Ġtransgr":2343,"Ġsy":2344,"Ġsor":2345,"erub":2346,"ask":2347,"aster":2348,"Ġden":2349,"Ġtaking":2350,"Ġram":2351,"Ġuponing":2352,"Ġchald":2353,"trials":2354,"plain":2355,"Ġquiet":2356,"ickly":2357,"Ġclimbed":2358,"ranches":2359,"Ġpleased":2360,"Ġreveal":2361,"Ġsweet":2362,"Ġlevites":2363,"Ġtwelve":2364,"gate":2365,"tw":2366,"Ġbook":2367,"rich":2368,"Ġthroughout":2369,"irds":2370,"Ġhorse":2371,"tongue":2372,"abraham":2373,"unjust":2374,"gold":2375,"Ġvi":2376,"leaving":2377,"Ġtribulation":2378,"avor":2379,"Ġpassed":2380,"cent":2381,"crow":2382,"iosue":2383,"Ġtow":2384,"Ġido":2385,"Ġforing":2386,"eremon":2387,"Ġsouls":2388,"Ġordered":2389,"meat":2390,"Ġflour":2391,"possession":2392,"iss":2393,"Ġbetter":2394,"ables":2395,"asph":2396,"Ġground":2397,"Ġlast":2398,"Ġinf":2399,"Ġyourselves":2400,"ility":2401,"Ġammon":2402,"Ġconsumed":2403,"tin":2404,"tro":2405,"Ġharm":2406,"Ġtoo":2407,"Ġmeans":2408,"Ġliing":2409,"Ġabomin":2410,"ized":2411,"Ġgrace":2412,"Ġafflict":2413,"dwellers":2414,"sun":2415,"Ġmust":2416,"Ġdry":2417,"Ġdiing":2418,"Ġreced":2419,"Ġpressing":2420,"posed":2421,"Ġproclaimed":2422,"Ġfamilies":2423,"Ġmultiplied":2424,",\"":2425,"uted":2426,"Ġnation":2427,"Ġdesire":2428,"Ġcommit":2429,"Ġfamily":2430,"Ġeternity":2431,"field":2432,"lamb":2433,"Ġcalf":2434,"Ġequ":2435,"Ġreach":2436,"Ġmyself":2437,"Ġamen":2438,"Ġjohn":2439,"Ġcompleted":2440,"Ġassyrians":2441,"ek":2442,"gates":2443,"Ġpath":2444,"Ġasked":2445,"ulter":2446,"Ġattend":2447,"Ġjudged":2448,"Ġofferings":2449,"Ġdestroyed":2450,"Ġalongs":2451,"Ġopened":2452,"long":2453,"mar":2454,"astern":2455,"Ġthirty":2456,"always":2457,"alilee":2458,"Ġsees":2459,"Ġwithdraw":2460,"Ġaliving":2461,"Ġabandon":2462,"Ġgreater":2463,"Ġconso":2464,"Ġgrind":2465,"Ġrepay":2466,"Ġstrengthened":2467,"sacrifice":2468,"Ġportion":2469,"dark":2470,"fied":2471,"igen":2472,"Ġbow":2473,"Ġcattle":2474,"urch":2475,"Ġexult":2476,"Ġdesp":2477,"Ġfeast":2478,"Ġperhaps":2479,"Ġanger":2480,"duce":2481,">(":2482,"far":2483,"Ġhumb":2484,"erness":2485,"Ġdoors":2486,"Ġchar":2487,"Ġprev":2488,"Ġquest":2489,"Ġtrees":2490,"Ġfoot":2491,"tre":2492,"uth":2493,"Ġwish":2494,"lot":2495,"Ġrebu":2496,"Ġprecept":2497,"cond":2498,"Ġconfounded":2499,"Ġapproached":2500,"Ġincre":2501,"pret":2502,"uous":2503,"Ġwit":2504,"Ġsouth":2505,"Ġtob":2506,"enter":2507,"Ġgiving":2508,"nearest":2509,"Ġblessing":2510,"ceeding":2511,"middle":2512,"birth":2513,"cho":2514,"offer":2515,"Ġmil":2516,"Ġgrow":2517,"Ġpick":2518,"ioned":2519,"Ġexcept":2520,"Ġflow":2521,"Ġcertainly":2522,"Ġdeparted":2523,"debate":2524,"fru":2525,"hour":2526,"Ġforty":2527,"Ġnext":2528,"Ġruled":2529,"Ġquickly":2530,"range":2531,"garment":2532,"Ġconsider":2533,"Ġbroken":2534,"Ġviol":2535,"hor":2536,"Ġbattle":2537,"Ġbeast":2538,"Ġheed":2539,"Ġoverthrow":2540,"Ġvest":2541,"Ġchari":2542,"imelech":2543,"aiah":2544,"larger":2545,"Ġangry":2546,"Ġfollowing":2547,"Ġascended":2548,"Ġannounce":2549,"bled":2550,"Ġsake":2551,"Ġforget":2552,"Ġstay":2553,"venge":2554,"Ġrush":2555,"Ġcondem":2556,"Ġburned":2557,"Ġangels":2558,"ruction":2559,"Ġblind":2560,"Ġremember":2561,"cerning":2562,"?'":2563,"city":2564,"ierem":2565,"mir":2566,"aces":2567,"Ġhour":2568,"Ġsmall":2569,"iti":2570,"Ġref":2571,"Ġarrive":2572,"heads":2573,"secrated":2574,"mem":2575,"victim":2576,"seh":2577,"iting":2578,"Ġbapt":2579,"Ġmoney":2580,"Ġcould":2581,"Ġdaniel":2582,"Ġple":2583,"Ġnever":2584,"Ġseeing":2585,"Ġcollected":2586,"Ġdeliver":2587,"bro":2588,"cri":2589,"fines":2590,"line":2591,"pes":2592,"Ġ(":2593,"Ġround":2594,"Ġsecond":2595,"whatever":2596,"ules":2597,"Ġmanner":2598,"Ġadulter":2599,"Ġsinners":2600,"Ġtrum":2601,"Ġgives":2602,"Ġrede":2603,"Ġgarment":2604,"Ġforeign":2605,"eb":2606,"een":2607,"Ġsound":2608,"Ġined":2609,"Ġformed":2610,"Ġjourney":2611,"Ġhearts":2612,"Ġdelight":2613,"sheeps":2614,"Ġdevoured":2615,"Ġmarry":2616,"Ġhelp":2617,"Ġbeside":2618,"gn":2619,"iordan":2620,"jamin":2621,"nos":2622,"Ġsam":2623,"Ġyouth":2624,"Ġdon":2625,"Ġdread":2626,"Ġhair":2627,"look":2628,"ifts":2629,"ump":2630,"ips":2631,"Ġegyptians":2632,"Ġhonored":2633,"oundat":2634,"coll":2635,"free":2636,"iamin":2637,"Ġreproach":2638,"iff":2639,"illages":2640,"Ġvain":2641,"Ġimmediately":2642,"Ġclimbs":2643,"Ġprayer":2644,"Ġunders":2645,"disturb":2646,"more":2647,"number":2648,"Ġsum":2649,"Ġbor":2650,"Ġmaster":2651,"Ġfly":2652,"Ġgaz":2653,"Ġreap":2654,"Ġdisgrace":2655,"teacher":2656,"priate":2657,"Ġencou":2658,"Ġviney":2659,"eye":2660,"inen":2661,"tood":2662,"Ġmel":2663,"lebr":2664,"ifes":2665,"Ġalls":2666,"mot":2667,"Ġspread":2668,"Ġhalf":2669,"Ġtouch":2670,"Ġclearly":2671,"Ġeternal":2672,"anim":2673,"Ġfavor":2674,"Ġrecommend":2675,"Ġlib":2676,"Ġlives":2677,"Ġouts":2678,"Ġacross":2679,"Ġcommanded":2680,"nago":2681,"Ġwilderness":2682,"Ġvirt":2683,"appro":2684,"solitude":2685,"Ġunderstood":2686,"lic":2687,"tents":2688,"unt":2689,"inf":2690,"Ġfish":2691,"Ġdro":2692,"Ġgro":2693,"iced":2694,"icho":2695,"Ġconcerning":2696,"Ġuncovered":2697,"aeum":2698,"Ġrespect":2699,"Ġstandard":2700,"Ġexalt":2701,"Ġslain":2702,"prepar":2703,"eth":2704,"rings":2705,"ters":2706,"used":2707,"Ġslave":2708,"essen":2709,"Ġfirm":2710,"Ġpat":2711,"stones":2712,"Ġoath":2713,"Ġneb":2714,"Ġentrust":2715,"thence":2716,"likeness":2717,"month":2718,"Ġdisturbed":2719,"min":2720,"Ġbed":2721,"Ġma":2722,"rel":2723,"Ġeast":2724,"beth":2725,"Ġoc":2726,"unger":2727,"Ġworship":2728,"izing":2729,"prosy":2730,"Ġfeared":2731,"Ġwomb":2732,"Ġpasses":2733,"babylon":2734,"gs":2735,"habit":2736,"kes":2737,"Ġdr":2738,"Ġlength":2739,"irect":2740,"rengthes":2741,"Ġrav":2742,"Ġburning":2743,"Ġphil":2744,"Ġtrusted":2745,"Ġrevealed":2746,"greater":2747,"Ġdeceit":2748,"Ġbenjamin":2749,"Ġindignation":2750,"Ġfifty":2751,"cry":2752,"calf":2753,"wall":2754,"Ġow":2755,"Ġbent":2756,"reams":2757,"icing":2758,"Ġturning":2759,"xtus":2760,"Ġiniquities":2761,"circling":2762,"Ġesau":2763,"Ġwidth":2764,"mal":2765,"rout":2766,"ule":2767,"acons":2768,"inces":2769,"Ġpru":2770,"fort":2771,"Ġark":2772,"pharaoh":2773,"Ġattent":2774,"Ġprison":2775,"imonies":2776,"Ġobtain":2777,"teachings":2778,"Ġcaused":2779,"woods":2780,"Ġwheat":2781,"Ġpeter":2782,"Ġaccomplish":2783,"Ġdonke":2784,"aff":2785,"cr":2786,"face":2787,"ms":2788,"ti":2789,"war":2790,"ouds":2791,"Ġhill":2792,"Ġlinen":2793,"Ġutter":2794,"river":2795,"Ġproceed":2796,"Ġrain":2797,"Ġhorses":2798,"Ġrememb":2799,"Ġwashed":2800,"Ġsurrounded":2801,"Ġlimits":2802,"umcised":2803,"twig":2804,"Ġprevail":2805,"camp":2806,"lord":2807,"arrog":2808,"Ġsister":2809,"Ġban":2810,"orum":2811,"educ":2812,"Ġwives":2813,"students":2814,"Ġcolor":2815,"avened":2816,"Ġunwillinged":2817,"Ġdistance":2818,"boy":2819,"Ġconsidered":2820,"breads":2821,"Ġcaptivity":2822,"orrh":2823,"testimony":2824,"Ġobey":2825,"Ġravages":2826,"gue":2827,"two":2828,"zzar":2829,"abuc":2830,"Ġmer":2831,"Ġmed":2832,"Ġavert":2833,"hodo":2834,"Ġtold":2835,"Ġtable":2836,"adne":2837,"Ġsolemn":2838,"Ġoutside":2839,"sover":2840,"uchadne":2841,"Ġimmo":2842,"leazar":2843,"john":2844,"Ġpoint":2845,"Ġseventh":2846,"Ġcorrect":2847,"doorway":2848,"remember":2849,"nosor":2850,"abuchodo":2851,"uchadnezzar":2852,"abuchodonosor":2853,"cities":2854,"ience":2855,"sextus":2856,"aris":2857,"Ġbitter":2858,"Ġauth":2859,"Ġpull":2860,"Ġiron":2861,"verted":2862,"Ġprovo":2863,"Ġknowed":2864,"Ġvillages":2865,"Ġjoined":2866,"Ġswear":2867,"Ġfamine":2868,"evening":2869,"Ġdriven":2870,"Ġfailed":2871,"Ġplease":2872,"guard":2873,"morrow":2874,"Ġcrowd":2875,"cessary":2876,"Ġthoughts":2877,"bearing":2878,"Ġmagn":2879,"Ġhumbled":2880,"Ġauthor":2881,"bring":2882,"body":2883,"ioseph":2884,"wal":2885,"inks":2886,"ening":2887,"Ġhy":2888,"Ġbranches":2889,"Ġag":2890,"Ġflock":2891,"idence":2892,"add":2893,"Ġsteps":2894,"Ġsol":2895,"Ġheads":2896,"Ġgladdened":2897,"Ġwickedness":2898,"Ġsorrow":2899,"Ġnebuchadnezzar":2900,"ael":2901,"ior":2902,"similarly":2903,"ery":2904,"ored":2905,"tow":2906,"Ġdirect":2907,"iron":2908,"Ġweak":2909,"Ġvalley":2910,"Ġrul":2911,"Ġresc":2912,"Ġneared":2913,"Ġpowerful":2914,"Ġadvancing":2915,"Ġfaithful":2916,"Ġcurse":2917,"Ġbrass":2918,"faithful":2919,"Ġsuffer":2920,"Ġrelease":2921,"eremonies":2922,"praise":2923,"ues":2924,"uel":2925,"wises":2926,"inher":2927,"young":2928,"Ġfig":2929,"asseh":2930,"Ġheight":2931,"Ġtabl":2932,"ution":2933,"Ġnames":2934,"Ġsoil":2935,"Ġmanasseh":2936,"ended":2937,"speech":2938,"Ġboy":2939,"Ġdescends":2940,"Ġacted":2941,"Ġprepare":2942,"Ġparts":2943,"Ġcorrupt":2944,"canaan":2945,"ifications":2946,"Ġbeauty":2947,"Ġburden":2948,"bow":2949,"harm":2950,"ange":2951,"Ġmur":2952,"Ġfright":2953,"Ġcup":2954,"Ġdet":2955,"Ġthirst":2956,"got":2957,"Ġshepher":2958,"aeus":2959,"cogn":2960,"meats":2961,"box":2962,"Ġidols":2963,"bas":2964,"book":2965,"cons":2966,"fat":2967,"gers":2968,"mark":2969,"set":2970,"Ġhoney":2971,"Ġsimilarly":2972,"Ġpay":2973,"ali":2974,"Ġalways":2975,"Ġrams":2976,"Ġproduced":2977,"spel":2978,"Ġcloud":2979,"Ġtenth":2980,"powerful":2981,"Ġfornic":2982,"Ġpharise":2983,"Ġprecepts":2984,"Ġborne":2985,"Ġvirtue":2986,"inherit":2987,"aves":2988,"clo":2989,"Ġwound":2990,"arrow":2991,"Ġhabit":2992,"Ġsides":2993,"Ġatrium":2994,"rying":2995,"Ġseeking":2996,"Ġdisp":2997,"contin":2998,"liing":2999,"Ġwalking":3000,"Ġsanctify":3001,"womans":3002,"needs":3003,"Ġwhether":3004,"ceedingly":3005,"daniel":3006,"fool":3007,"ration":3008,"same":3009,"show":3010,"yal":3011,"Ġwrite":3012,"Ġsho":3013,"Ġcru":3014,"Ġlion":3015,"adv":3016,"Ġatt":3017,"Ġunfair":3018,"Ġroyal":3019,"anger":3020,"Ġpermit":3021,"Ġabled":3022,"unfairnesses":3023,"knowledge":3024,"leader":3025,"Ġpromised":3026,"beginning":3027,"Ġestablished":3028,"Ġauthority":3029,"kins":3030,"men":3031,"ress":3032,"Ġwro":3033,"ofern":3034,"army":3035,"Ġhate":3036,"Ġhates":3037,"Ġsn":3038,"Ġsought":3039,"Ġbirds":3040,"Ġur":3041,"Ġweigh":3042,"phan":3043,"Ġdoct":3044,"Ġexceedingly":3045,"Ġlikewise":3046,"Ġappointed":3047,"Ġpress":3048,"Ġcompan":3049,"Ġsatis":3050,"irming":3051,"present":3052,"Ġprophesy":3053,"igent":3054,"Ġwrote":3055,"back":3056,"have":3057,"money":3058,"pour":3059,"phe":3060,"Ġhang":3061,"Ġbones":3062,"Ġtrem":3063,"Ġfort":3064,"Ġjump":3065,"peter":3066,"Ġste":3067,"Ġmeas":3068,"seless":3069,"udent":3070,"cters":3071,"Ġprost":3072,"Ġprotect":3073,"Ġaccus":3074,"Ġrich":3075,"Ġrisen":3076,"Ġrock":3077,"served":3078,"Ġinhabiting":3079,"Ġsacrifices":3080,"Ġsomeone":3081,"Ġadded":3082,"greatly":3083,"across":3084,"Ġhung":3085,"Ġah":3086,"Ġfought":3087,"Ġdou":3088,"Ġpoll":3089,"Ġig":3090,"Ġhealth":3091,"Ġtrou":3092,"Ġarrang":3093,"Ġupons":3094,"Ġgreatly":3095,"Ġcare":3096,"Ġeveryone":3097,"Ġfollowed":3098,"trust":3099,"Ġblasph":3100,"prophets":3101,"Ġmultiply":3102,"Ġminister":3103,"help":3104,"fruits":3105,"iordanem":3106,"fail":3107,"rine":3108,"search":3109,"Ġspar":3110,"Ġsad":3111,"Ġbind":3112,"Ġmale":3113,"Ġair":3114,"Ġgifts":3115,"Ġtread":3116,"odom":3117,"ighty":3118,"pping":3119,"Ġsinner":3120,"Ġneck":3121,"Ġentrance":3122,"Ġpreach":3123,"Ġgenerations":3124,"Ġrelations":3125,"Ġlooked":3126,"ases":3127,"ea":3128,"lasting":3129,"Ġwalls":3130,"Ġlies":3131,"akim":3132,"Ġsev":3133,"Ġsell":3134,"icted":3135,"thern":3136,"Ġstreet":3137,"umin":3138,"imeon":3139,"Ġtrue":3140,"Ġfirstborn":3141,"shepher":3142,"psalm":3143,"Ġsubdu":3144,"imilar":3145,"Ġcountry":3146,"Ġconsoled":3147,"bon":3148,"cy":3149,"kind":3150,"tings":3151,"Ġve":3152,"encircling":3153,"Ġwriting":3154,"Ġbene":3155,"essed":3156,"Ġages":3157,"recommend":3158,"imp":3159,"ries":3160,"moke":3161,"Ġabund":3162,"fulness":3163,"dead":3164,"serv":3165,"Ġevils":3166,"Ġincense":3167,"Ġempty":3168,"treasure":3169,"Ġentrusted":3170,"bing":3171,"listen":3172,"wifes":3173,"Ġsar":3174,"Ġsla":3175,"Ġapart":3176,"Ġgad":3177,"Ġgrie":3178,"Ġthinking":3179,"amels":3180,"north":3181,"Ġserved":3182,"goods":3183,"Ġkilling":3184,"Ġpursu":3185,"Ġcease":3186,"Ġcelebr":3187,"pressing":3188,"sending":3189,"thinkings":3190,"Ġpharisees":3191,"eans":3192,"urif":3193,"thi":3194,"lled":3195,"Ġflocks":3196,"leavened":3197,"Ġdan":3198,"Ġtorr":3199,"Ġdeb":3200,"Ġwealth":3201,"Ġbegins":3202,"Ġservice":3203,"Ġkept":3204,"empty":3205,"ships":3206,"Ġlambs":3207,"Ġglorified":3208,"Ġashes":3209,"Ġvictims":3210,"Ġreceded":3211,"Ġtablets":3212,"gotten":3213,"avers":3214,"boo":3215,"gi":3216,"jour":3217,"oke":3218,"taking":3219,"itary":3220,"issed":3221,"Ġgalilee":3222,"form":3223,"Ġtaught":3224,"Ġtempt":3225,"ily":3226,"iffer":3227,"Ġweight":3228,"Ġating":3229,"Ġunjust":3230,"ilead":3231,"Ġrob":3232,"spir":3233,"Ġdelay":3234,"herself":3235,"Ġvision":3236,"resh":3237,"Ġdemol":3238,"alaad":3239,"kid":3240,"lab":3241,"ray":3242,"inc":3243,"inhabit":3244,"ative":3245,"Ġofing":3246,"stret":3247,"ils":3248,"Ġstir":3249,"Ġalas":3250,"Ġuncover":3251,"Ġriches":3252,"Ġcommon":3253,"ixed":3254,"Ġfailing":3255,"alaam":3256,"Ġeverlasting":3257,"offering":3258,"Ġlearned":3259,"Ġanimals":3260,"Ġseventy":3261,"ephraim":3262,"five":3263,"live":3264,"thel":3265,"Ġsits":3266,"abel":3267,"Ġshad":3268,"alous":3269,"Ġsojour":3270,"udden":3271,"Ġweeping":3272,"Ġdoing":3273,"compar":3274,"Ġexplain":3275,"Ġadore":3276,"Ġentering":3277,"Ġabling":3278,"Ġappearance":3279,"Ġpetition":3280,"calling":3281,"Ġdesolate":3282,"infanc":3283,"foul":3284,"mind":3285,"sle":3286,"sitting":3287,"tempt":3288,"Ġvo":3289,"Ġvessel":3290,"Ġwings":3291,"Ġsm":3292,"rock":3293,"Ġhell":3294,"rain":3295,"Ġcompar":3296,"Ġconvers":3297,"names":3298,"Ġshekels":3299,"Ġdescri":3300,"Ġholded":3301,"Ġgrant":3302,"sence":3303,"Ġcarrying":3304,"Ġdiscipline":3305,"Ġdeclar":3306,"Ġstretch":3307,"Ġarrogance":3308,"Ġsprinkled":3309,"Ġtransgress":3310,"Ġchariots":3311,"bus":3312,"foolish":3313,"ware":3314,"esth":3315,"Ġdust":3316,"Ġloud":3317,"Ġins":3318,"Ġty":3319,"Ġshame":3320,"Ġshaken":3321,"Ġeag":3322,"Ġfored":3323,"Ġoak":3324,"Ġmemor":3325,"Ġoffers":3326,"anged":3327,"protect":3328,"Ġfighting":3329,"Ġsigns":3330,"Ġuseful":3331,"Ġcourt":3332,"Ġexamine":3333,"Ġfulfilled":3334,"Ġcrushed":3335,"Ġignor":3336,")<":3337,";<":3338,"capt":3339,"cup":3340,"har":3341,"ipped":3342,"pay":3343,"sad":3344,"uish":3345,"walls":3346,"aring":3347,"Ġdried":3348,"Ġtents":3349,"Ġart":3350,"Ġrecogn":3351,"ement":3352,"Ġdep":3353,"Ġchurch":3354,"lax":3355,"ancing":3356,"Ġburied":3357,"Ġclear":3358,"attles":3359,"Ġoxen":3360,"nature":3361,"sanctuary":3362,"lumns":3363,"Ġchaldeans":3364,"darknesses":3365,"collect":3366,"Ġdoctrine":3367,"aim":3368,"hard":3369,"lie":3370,"pain":3371,"acks":3372,"Ġsimon":3373,"Ġsimilar":3374,"Ġborders":3375,"attend":3376,"Ġcro":3377,"rob":3378,"Ġinno":3379,"stri":3380,"strengthes":3381,"alive":3382,"love":3383,"ruling":3384,"weak":3385,"indignation":3386,"Ġpresence":3387,"Ġrivers":3388,"Ġmiddle":3389,"Ġshows":3390,"Ġsomething":3391,"Ġchosen":3392,"suff":3393,"Ġhelped":3394,"Ġconsume":3395,"bers":3396,"ci":3397,"eat":3398,"eses":3399,"iver":3400,"such":3401,"ince":3402,"arum":3403,"Ġbaal":3404,"owers":3405,"Ġtal":3406,"ider":3407,"alas":3408,"Ġitself":3409,"chances":3410,"aints":3411,"Ġwaste":3412,"Ġnaked":3413,"Ġamor":3414,"ender":3415,"Ġchains":3416,"Ġjustly":3417,"manasses":3418,"proclaim":3419,"aware":3420,"Ġbegin":3421,"Ġwalks":3422,"Ġadvances":3423,"understanding":3424,"enemy":3425,"bargain":3426,"falling":3427,"households":3428,"motion":3429,"bones":3430,"eastern":3431,"gal":3432,"half":3433,"lower":3434,"prom":3435,"swe":3436,"inner":3437,"Ġsimeon":3438,"Ġap":3439,"Ġbelo":3440,"reproach":3441,"hol":3442,"Ġdrun":3443,"Ġdream":3444,"Ġpra":3445,"Ġtears":3446,"achel":3447,"Ġmeat":3448,"Ġalives":3449,"Ġexc":3450,"Ġundert":3451,"Ġeaten":3452,"Ġclouds":3453,"Ġgoods":3454,"Ġcontr":3455,"measure":3456,"Ġcannot":3457,"Ġpitch":3458,"Ġfruits":3459,"Ġpromise":3460,"Ġholofern":3461,"lambs":3462,"education":3463,"Ġbeloved":3464,"!\"":3465,"ee":3466,"hon":3467,"inth":3468,"inter":3469,"around":3470,"parts":3471,"Ġtoday":3472,"Ġtakes":3473,"outside":3474,"Ġgospel":3475,"esty":3476,"Ġstars":3477,"quence":3478,"Ġleads":3479,"tribut":3480,"Ġimmaculate":3481,"woe":3482,"spes":3483,"Ġperfect":3484,"Ġobserve":3485,"womb":3486,"Ġteaching":3487,"Ġesc":3488,"Ġcovering":3489,"Ġerase":3490,"Ġterrif":3491,"Ġannounced":3492,"Ġdeparting":3493,"Ġvirg":3494,"Ġminist":3495,"Ġoblation":3496,"drinking":3497,"Ġtrumpet":3498,"Ġlibations":3499,"cor":3500,"grief":3501,"wind":3502,"thinking":3503,"their":3504,"inst":3505,"Ġwaies":3506,"aba":3507,"Ġmir":3508,"Ġtoes":3509,"Ġdrew":3510,"Ġgilead":3511,"Ġioseph":3512,"iring":3513,"Ġleo":3514,"keep":3515,"Ġalm":3516,"pharis":3517,"short":3518,"Ġfalls":3519,"Ġconfidence":3520,"Ġremains":3521,"aria":3522,"Ġrespon":3523,"Ġapproaching":3524,"Ġneeds":3525,"Ġassist":3526,"width":3527,"Ġdrove":3528,"essengers":3529,"harmless":3530,"vision":3531,"another":3532,"Ġhop":3533,"ericho":3534,"Ġfur":3535,"immaculate":3536,"beaut":3537,"Ġamaz":3538,"Ġovers":3539,"moab":3540,"Ġspl":3541,"Ġruben":3542,"Ġloose":3543,"ibis":3544,"Ġshown":3545,"Ġhiding":3546,"ithara":3547,"umcision":3548,"sinners":3549,"Ġremembered":3550,"Ġsatisfied":3551,"captivity":3552,"Ġresponse":3553,"Ġamazed":3554,"aens":3555,"cut":3556,"dest":3557,"dry":3558,"dition":3559,"madness":3560,"Ġate":3561,"Ġwo":3562,"Ġsion":3563,"Ġfool":3564,"Ġclaim":3565,"icult":3566,"whel":3567,"urnace":3568,"Ġcham":3569,"Ġadvers":3570,"Ġsinai":3571,"Ġcalling":3572,"reading":3573,"Ġscar":3574,"tract":3575,"descend":3576,"Ġmourning":3577,"Ġarrogant":3578,"ifficult":3579,"Ġfrightened":3580,"inheritance":3581,"dust":3582,"gg":3583,"oli":3584,"pses":3585,"saints":3586,"valley":3587,"Ġhide":3588,"itarum":3589,"atrium":3590,"ism":3591,"Ġpil":3592,"Ġlying":3593,"Ġtear":3594,"Ġremo":3595,"using":3596,"Ġknew":3597,"Ġleprosy":3598,"Ġdeep":3599,"ously":3600,"judahes":3601,"Ġharvest":3602,"Ġaccomplished":3603,"Ġquestioned":3604,"Ġcondemn":3605,"miracles":3606,"advancing":3607,"esthood":3608,"dent":3609,"mel":3610,"ane":3611,"Ġbal":3612,"Ġmadness":3613,"reh":3614,"Ġinv":3615,"Ġwhite":3616,"usion":3617,"iling":3618,"Ġsoon":3619,"oppos":3620,"never":3621,"Ġherself":3622,"Ġimage":3623,"meet":3624,"Ġtestimonies":3625,"exp":3626,"viol":3627,"putting":3628,"Ġterror":3629,"blind":3630,"equally":3631,"Ġcourse":3632,"Ġbeautiful":3633,"oxs":3634,"following":3635,"erubim":3636,"Ġaffliction":3637,"chosen":3638,"Ġpleasing":3639,"Ġvineyard":3640,"Ġhungry":3641,"ifferent":3642,"binding":3643,"hunger":3644,"oint":3645,"zer":3646,"Ġach":3647,"semb":3648,"any":3649,"Ġsuc":3650,"generations":3651,"Ġfron":3652,"Ġcros":3653,"Ġgift":3654,"Ġpi":3655,"Ġpurif":3656,"Ġintro":3657,"Ġshar":3658,"Ġev":3659,"rage":3660,"entry":3661,"loo":3662,"Ġstudent":3663,"etime":3664,"Ġlevi":3665,"Ġentreat":3666,"Ġsetting":3667,"olation":3668,"Ġdestruction":3669,"Ġthanks":3670,"mael":3671,"Ġgladness":3672,"Ġdrawn":3673,"Ġattention":3674,"Ġrescue":3675,"Ġbenef":3676,"Ġtorrent":3677,"dri":3678,"journey":3679,"kiah":3680,"lin":3681,"san":3682,"non":3683,"Ġhorns":3684,"Ġsus":3685,"inger":3686,"eds":3687,"Ġced":3688,"Ġgrief":3689,"Ġpalm":3690,"imin":3691,"Ġtending":3692,"stance":3693,"icum":3694,"entrance":3695,"Ġnat":3696,"Ġabimelech":3697,"Ġdowning":3698,"deep":3699,"Ġroot":3700,"Ġraved":3701,"Ġotherwise":3702,"Ġsubject":3703,"foot":3704,"Ġillumin":3705,"pray":3706,"Ġwidow":3707,"Ġfoots":3708,"Ġbeniamin":3709,"Ġsecret":3710,"Ġtravel":3711,"Ġlearn":3712,"Ġextended":3713,"eph":3714,"length":3715,"mil":3716,"sam":3717,"sue":3718,"itself":3719,"Ġfountain":3720,"Ġcant":3721,"Ġlang":3722,"Ġele":3723,"uture":3724,"Ġformer":3725,"Ġstor":3726,"Ġstaff":3727,"Ġhears":3728,"Ġremn":3729,"swift":3730,"judge":3731,"meas":3732,"working":3733,"Ġrepent":3734,"supp":3735,"Ġcrown":3736,"Ġstretched":3737,"Ġscribe":3738,"Ġtrave":3739,"ageder":3740,"Ġhumble":3741,"Ġastray":3742,"broad":3743,"Ġmastered":3744,"nagogue":3745,"Ġoccur":3746,"walking":3747,"Ġcruc":3748,"Ġunfairness":3749,"Ġalmighty":3750,"bron":3751,"farm":3752,"jesty":3753,"obe":3754,"thin":3755,"aning":3756,"Ġwear":3757,"remo":3758,"Ġlament":3759,"Ġeleazar":3760,"Ġsex":3761,"urrect":3762,"Ġrever":3763,"ustom":3764,"Ġnumb":3765,"Ġoverwhel":3766,"Ġperce":3767,"ibility":3768,"serving":3769,"Ġtowards":3770,"worthy":3771,"circumcised":3772,"raged":3773,"Ġguards":3774,"Ġwitness":3775,"memory":3776,"preparing":3777,"Ġcantic":3778,"four":3779,"flocks":3780,"merc":3781,"och":3782,"rates":3783,"uck":3784,"wit":3785,"Ġhind":3786,"isaac":3787,"Ġfoundat":3788,"Ġfuture":3789,"Ġcal":3790,"Ġdug":3791,"Ġpill":3792,"immediately":3793,"Ġtem":3794,"idon":3795,"Ġarea":3796,"achar":3797,"Ġgover":3798,"Ġasking":3799,"Ġanointed":3800,"Ġalived":3801,"solemn":3802,"Ġproduce":3803,"Ġcovers":3804,"agate":3805,"dening":3806,"Ġremainder":3807,"Ġreplet":3808,"Ġfourth":3809,"Ġfields":3810,"Ġcontinue":3811,"Ġsupport":3812,"iety":3813,"climb":3814,"Ġhills":3815,"continuous":3816,"uddenly":3817,"Ġinnocent":3818,"Ġterrified":3819,"enses":3820,"Ġwest":3821,"Ġbars":3822,"Ġbroke":3823,"Ġofs":3824,"Ġca":3825,"Ġgird":3826,"Ġpain":3827,"elu":3828,"Ġjob":3829,"Ġsaint":3830,"chem":3831,"Ġoverturn":3832,"Ġval":3833,"Ġspring":3834,"ounding":3835,"Ġhousehold":3836,"Ġbegun":3837,"post":3838,"Ġregions":3839,"Ġcrying":3840,"Ġrequire":3841,"Ġmourn":3842,"Ġplanted":3843,"regret":3844,"Ġabandoned":3845,"Ġpolluted":3846,"Ġshadow":3847,"Ġsmear":3848,"cious":3849,"hair":3850,"horns":3851,"rams":3852,"arched":3853,"isions":3854,"top":3855,"Ġmort":3856,"Ġfem":3857,"Ġlow":3858,"Ġineb":3859,"forget":3860,"Ġshed":3861,"elo":3862,"augh":3863,"Ġats":3864,"Ġworthy":3865,"Ġreported":3866,"Ġpassing":3867,"Ġdeflect":3868,"Ġpresented":3869,"Ġsuffic":3870,"Ġscribes":3871,"carrying":3872,"Ġsyri":3873,"Ġcommitted":3874,"ieremiam":3875,"Ġundertaked":3876,"opposite":3877,"Ġinebri":3878,"bars":3879,"lip":3880,"lament":3881,"taste":3882,"uri":3883,"those":3884,"inates":3885,"Ġfin":3886,"Ġbetr":3887,"reen":3888,"lehem":3889,"Ġduring":3890,"Ġlend":3891,"Ġlist":3892,"Ġhealed":3893,"Ġelect":3894,"load":3895,"heth":3896,"phth":3897,"Ġconverted":3898,"ishes":3899,"Ġexec":3900,"consecrated":3901,"ublic":3902,"orned":3903,"Ġsending":3904,"Ġreturning":3905,"Ġholding":3906,"ensive":3907,"Ġcounted":3908,"Ġtreas":3909,"Ġsuppl":3910,"Ġfriends":3911,"Ġreigned":3912,"hemently":3913,"itiates":3914,"Ġowe":3915,"Ġdouble":3916,"meeting":3917,"cast":3918,"oked":3919,"sat":3920,"sal":3921,"vy":3922,"seizing":3923,"three":3924,"acking":3925,"Ġsick":3926,"Ġsodom":3927,"llow":3928,"Ġbury":3929,"Ġborder":3930,"Ġmine":3931,"Ġfaces":3932,"Ġcre":3933,"Ġcorn":3934,"left":3935,"Ġir":3936,"fors":3937,"uty":3938,"adian":3939,"pass":3940,"Ġwhirl":3941,"Ġstrang":3942,"Ġlikeness":3943,"umer":3944,"Ġsprout":3945,"Ġchamb":3946,"Ġfew":3947,"specters":3948,"Ġposses":3949,"aily":3950,"Ġtrial":3951,"avy":3952,"dence":3953,"Ġclothing":3954,"Ġdescending":3955,"teen":3956,"Ġtransp":3957,"Ġcleans":3958,"Ġbuilding":3959,"Ġdwelling":3960,"Ġreleased":3961,"Ġredeem":3962,"Ġphilist":3963,"Ġdonkey":3964,"basin":3965,"Ġurinates":3966,"Ġarranged":3967,"Ġabundance":3968,"Ġcelebrate":3969,"suffering":3970,"eluia":3971,"Ġbetray":3972,"Ġchambers":3973,"ba":3974,"cro":3975,"det":3976,"drink":3977,"fle":3978,"glor":3979,"lated":3980,"nun":3981,"nabuchodonosor":3982,"tem":3983,"seven":3984,"seats":3985,"Ġhanan":3986,"Ġsize":3987,"itution":3988,"Ġbri":3989,"Ġflying":3990,"Ġcamels":3991,"hood":3992,"Ġining":3993,"Ġhebre":3994,"adab":3995,"rule":3996,"comp":3997,"Ġconst":3998,"Ġhanded":3999,"Ġvowed":4000,"Ġunable":4001,"Ġleading":4002,"Ġjustices":4003,"reeable":4004,"dec":4005,"Ġfearing":4006,"Ġclay":4007,"Ġmidian":4008,"flowing":4009,"shekels":4010,"exalt":4011,"Ġbelong":4012,"getting":4013,"Ġtabernacles":4014,"Ġworlds":4015,"Ġpursue":4016,"remainses":4017,"Ġlabors":4018,"covering":4019,"Ġbelieved":4020,"Ġreigns":4021,"trans":4022,"Ġprice":4023,"Ġafflicted":4024,"Ġeduc":4025,"lands":4026,"richeses":4027,"Ġpaths":4028,"Ġgrinded":4029,"Ġincreased":4030,"victims":4031,"Ġencourage":4032,"Ġchamber":4033,"Ġlangu":4034,"urrection":4035,"jah":4036,"lined":4037,"some":4038,"tables":4039,"Ġskin":4040,"Ġbask":4041,"Ġcat":4042,"ley":4043,"Ġdies":4044,"Ġpause":4045,"Ġio":4046,"Ġez":4047,"rible":4048,"Ġseem":4049,"Ġchanged":4050,"Ġsheeps":4051,"Ġagained":4052,"Ġlands":4053,"Ġputting":4054,"perfect":4055,"Ġarrives":4056,"Ġarrival":4057,"Ġspirits":4058,"Ġmerciful":4059,"Ġcommandment":4060,"yss":4061,"Ġsixty":4062,"horse":4063,"Ġtyre":4064,"tribution":4065,"Ġcanticle":4066,"away":4067,"cern":4068,"fast":4069,"hur":4070,"ost":4071,"pathes":4072,"sit":4073,"song":4074,"sight":4075,"sabbath":4076,"sister":4077,"enance":4078,"Ġmist":4079,"Ġmary":4080,"Ġfre":4081,"Ġfears":4082,"Ġintend":4083,"Ġti":4084,"ribut":4085,"passion":4086,"ruin":4087,"Ġassemb":4088,"Ġstra":4089,"Ġstrange":4090,"Ġcompassion":4091,"unto":4092,"Ġmoon":4093,"Ġnecessary":4094,"aleb":4095,"Ġruined":4096,"deacons":4097,"tribulation":4098,"Ġholds":4099,"Ġappropriate":4100,"Ġrestore":4101,"Ġsacrificed":4102,"Ġguarded":4103,"scri":4104,"Ġpleases":4105,"afterwards":4106,"graved":4107,"Ġholocausts":4108,"Ġpriesthood":4109,"natch":4110,"Ġcontinually":4111,"Ġwander":4112,"crown":4113,"Ġabominations":4114,"pretation":4115,"Ġtobias":4116,"Ġredeemed":4117,"Ġdrunk":4118,"merciful":4119,"bling":4120,"bitter":4121,"certain":4122,"lion":4123,"male":4124,"uses":4125,"Ġfed":4126,"Ġfarm":4127,"Ġtomb":4128,"Ġham":4129,"Ġtor":4130,"Ġshort":4131,"Ġforgotten":4132,"Ġolive":4133,"Ġsavi":4134,"Ġkin":4135,"open":4136,"quet":4137,"Ġherod":4138,"Ġshechem":4139,"Ġjustified":4140,"Ġserp":4141,"shout":4142,"Ġscour":4143,"Ġclosed":4144,"Ġclothes":4145,"truly":4146,"Ġsubstance":4147,"Ġcleansed":4148,"Ġilling":4149,"Ġrejoicing":4150,"Ġrequires":4151,"Ġglorify":4152,"Ġseparated":4153,"Ġexpi":4154,"Ġwonders":4155,"Ġfornication":4156,"appropriate":4157,"Ġprudence":4158,"sweeping":4159,"bal":4160,"dream":4161,"flock":4162,"mules":4163,"nations":4164,"pur":4165,"uph":4166,"than":4167,"Ġhat":4168,"too":4169,"Ġflax":4170,"Ġthorns":4171,"Ġhail":4172,"Ġtim":4173,"Ġtreat":4174,"rivers":4175,"Ġsen":4176,"Ġseing":4177,"Ġform":4178,"Ġjericho":4179,"beasts":4180,"Ġreject":4181,"char":4182,"estals":4183,"Ġstu":4184,"ety":4185,"Ġanc":4186,"Ġran":4187,"Ġrid":4188,"Ġconsecrated":4189,"Ġhandmaid":4190,"Ġplunder":4191,"Ġspeech":4192,"Ġprecious":4193,"Ġimposed":4194,"Ġundertake":4195,"aeorum":4196,"awn":4197,"common":4198,"firsts":4199,"Ġseizes":4200,"Ġdistribut":4201,"Ġdevast":4202,"tell":4203,"Ġslept":4204,"Ġpassover":4205,"seaes":4206,"Ġemptiness":4207,"killing":4208,"Ġmilk":4209,"Ġruler":4210,"Ġslaves":4211,"booty":4212,"Ġcrossed":4213,"Ġentreats":4214,"Ġremnant":4215,"Ġphilistines":4216,"Ġsavior":4217,"cari":4218,"hiding":4219,"je":4220,"pool":4221,"stom":4222,"Ġought":4223,"itate":4224,"Ġbend":4225,"tomorrow":4226,"Ġmis":4227,"Ġflood":4228,"Ġdu":4229,"Ġdig":4230,"Ġlar":4231,"Ġlaid":4232,"Ġlaugh":4233,"Ġshout":4234,"odor":4235,"verb":4236,"Ġreal":4237,"Ġsale":4238,"Ġupright":4239,"chains":4240,"ification":4241,"pets":4242,"Ġstore":4243,"Ġallow":4244,"ops":4245,"ulation":4246,"Ġleban":4247,"Ġamb":4248,"Ġweep":4249,"phil":4250,"Ġconqu":4251,"neither":4252,"Ġadam":4253,"Ġdism":4254,"otherwise":4255,"Ġzed":4256,"Ġsworn":4257,"Ġinstru":4258,"Ġtested":4259,"Ġbreast":4260,"Ġproclaiming":4261,"scent":4262,"Ġbeaten":4263,"Ġhelper":4264,"Ġsinging":4265,"Ġaccepted":4266,"Ġseparate":4267,"Ġdesolation":4268,"Ġexultation":4269,"Ġwitnesses":4270,"Ġadultery":4271,"Ġmajesty":4272,"Ġdrinking":4273,"Ġstreets":4274,"Ġsubdued":4275,"given":4276,"Ġholofernes":4277,"Ġfront":4278,"Ġfemale":4279,"stomach":4280,"dear":4281,"low":4282,"pure":4283,"wed":4284,"separ":4285,"ths":4286,"outhern":4287,"Ġbases":4288,"tob":4289,"Ġfil":4290,"return":4291,"Ġceremonies":4292,"Ġtoing":4293,"Ġdam":4294,"Ġpowers":4295,"room":4296,"Ġeastern":4297,"adam":4298,"eling":4299,"ical":4300,"Ġreed":4301,"pefied":4302,"Ġnib":4303,"Ġnamed":4304,"etting":4305,"Ġsoiled":4306,"weight":4307,"Ġleast":4308,"void":4309,"Ġunless":4310,"Ġunleavened":4311,"agreeable":4312,"Ġserving":4313,"Ġprey":4314,"Ġdisper":4315,"justices":4316,"Ġroof":4317,"command":4318,"Ġboast":4319,"ffect":4320,"burning":4321,"Ġerased":4322,"Ġprophesied":4323,"mingling":4324,"ekiah":4325,"pretty":4326,"Ġmilitary":4327,"pouring":4328,"Ġblasphemed":4329,"failing":4330,"comparison":4331,"Ġignorant":4332,"Ġstupefied":4333,"cru":4334,"drag":4335,"gl":4336,"Ġdran":4337,"root":4338,"ales":4339,"Ġseir":4340,"Ġforring":4341,"Ġforbear":4342,"Ġforgiven":4343,"peat":4344,"Ġstation":4345,"unuch":4346,"Ġconsecr":4347,"Ġplants":4348,"Ġplains":4349,"neck":4350,"avelin":4351,"Ġappreh":4352,"Ġpersec":4353,"Ġquar":4354,"Ġkindled":4355,"Ġkingdoms":4356,"scatter":4357,"build":4358,"Ġceased":4359,"Ġdemons":4360,"vestig":4361,"ascibility":4362,"Ġmalice":4363,"Ġincrease":4364,"vengeance":4365,"Ġimmolated":4366,"Ġprostr":4367,"Ġvirgin":4368,"Ġhoped":4369,"obeying":4370,"Ġnumbered":4371,"Ġzedekiah":4372,"Ġdrank":4373,"cake":4374,"cop":4375,"eag":4376,"foundat":4377,"iob":4378,"pers":4379,"ued":4380,"ared":4381,"ital":4382,"Ġfurnace":4383,"Ġduty":4384,"Ġeight":4385,"Ġyours":4386,"Ġnah":4387,"estil":4388,"Ġstudents":4389,"health":4390,"Ġnoise":4391,"isted":4392,"Ġworking":4393,"Ġbacks":4394,"Ġenjoy":4395,"Ġloc":4396,"Ġfalling":4397,"plant":4398,"Ġpersians":4399,"Ġcasted":4400,"arius":4401,"Ġendure":4402,"Ġprayers":4403,"Ġparable":4404,"Ġpurple":4405,"Ġcured":4406,"gues":4407,"Ġteeth":4408,"equip":4409,"widowed":4410,"Ġlamps":4411,"Ġwandered":4412,"foods":4413,"arrogance":4414,"Ġbitterness":4415,"Ġmeasured":4416,"infancies":4417,"temptation":4418,"cand":4419,"cing":4420,"cle":4421,"iers":4422,"lay":4423,"mur":4424,"table":4425,"zz":4426,"tham":4427,"acinth":4428,"Ġsmoke":4429,"Ġsidon":4430,"Ġsuddenly":4431,"itt":4432,"Ġmatter":4433,"Ġapost":4434,"Ġwither":4435,"Ġcithara":4436,"parching":4437,"vehemently":4438,"Ġid":4439,"Ġish":4440,"Ġshake":4441,"Ġelo":4442,"Ġeph":4443,"odies":4444,"irascibility":4445,"outer":4446,"adise":4447,"beware":4448,"onement":4449,"Ġrebe":4450,"chance":4451,"Ġleaven":4452,"Ġnone":4453,"umulation":4454,"ishment":4455,"nect":4456,"Ġherd":4457,"Ġturns":4458,"angels":4459,"spot":4460,"worst":4461,"Ġjew":4462,"disgrace":4463,"heights":4464,"Ġforsaken":4465,"Ġfifth":4466,"confirming":4467,"Ġpropagate":4468,"arrogant":4469,"Ġshepherds":4470,"Ġaccusto":4471,"Ġmemorial":4472,"Ġsmeared":4473,"forgeting":4474,"lamentations":4475,"Ġlebanon":4476,"bles":4477,"hes":4478,"som":4479,"wild":4480,"Ġvengeance":4481,"announ":4482,"Ġbought":4483,"edge":4484,"Ġmark":4485,"rear":4486,"Ġcoo":4487,"Ġdil":4488,"Ġdifficult":4489,"Ġpan":4490,"Ġpun":4491,"Ġpie":4492,"Ġiosue":4493,"Ġheze":4494,"Ġshine":4495,"aded":4496,"Ġforest":4497,"raf":4498,"ilty":4499,"Ġdew":4500,"Ġplay":4501,"nees":4502,"Ġchange":4503,"Ġjudea":4504,"Ġloving":4505,"Ġtrusts":4506,"Ġdesires":4507,"olly":4508,"Ġrested":4509,"herd":4510,"Ġguilty":4511,"Ġshowed":4512,"Ġconceal":4513,"below":4514,"Ġsurrounding":4515,"Ġcorrupted":4516,"Ġtroubled":4517,"Ġdescribe":4518,"collecting":4519,"proclaiming":4520,"Ġescape":4521,"anothers":4522,"Ġridic":4523,"Ġambush":4524,"Ġaccustomed":4525,"Ġpieces":4526,"ez":4527,"every":4528,"fig":4529,"hill":4530,"lips":4531,"squ":4532,"times":4533,"ually":4534,"wide":4535,"noon":4536,"Ġwrought":4537,"itions":4538,"Ġbase":4539,"orah":4540,"ators":4541,"ont":4542,"asking":4543,"Ġged":4544,"Ġgalaad":4545,"roat":4546,"Ġinqu":4547,"Ġheat":4548,"Ġethi":4549,"riage":4550,"Ġseat":4551,"Ġkid":4552,"opia":4553,"Ġdeacons":4554,"Ġrachel":4555,"ists":4556,"Ġmoabit":4557,"Ġoffenses":4558,"Ġabound":4559,"Ġlost":4560,"liable":4561,"Ġperpetual":4562,"Ġanguish":4563,"Ġends":4564,"Ġdiscern":4565,"Ġcuttings":4566,"abbathes":4567,"cede":4568,"ressed":4569,"reshold":4570,"Ġwrapped":4571,"Ġrequest":4572,"Ġashamed":4573,"crowbars":4574,"Ġquestion":4575,"Ġvestib":4576,"rational":4577,"Ġveil":4578,"alousy":4579,"Ġexplained":4580,"instead":4581,"Ġwoe":4582,"Ġpilate":4583,"Ġcrucified":4584,"Ġgovernor":4585,"Ġsufficient":4586,"Ġsyria":4587,"Ġlistened":4588,"Ġpossessed":4589,"Ġlocust":4590,"Ġhezekiah":4591,"creat":4592,"race":4593,"skin":4594,"sland":4595,"Ġwail":4596,"Ġbad":4597,"atue":4598,"Ġmules":4599,"Ġbethel":4600,"repeat":4601,"Ġcy":4602,"Ġtomorrow":4603,"Ġger":4604,"Ġtaste":4605,"Ġeno":4606,"passover":4607,"church":4608,"Ġnur":4609,"arden":4610,"goat":4611,"Ġated":4612,"Ġabyss":4613,"uben":4614,"Ġrod":4615,"aped":4616,"place":4617,"assur":4618,"Ġdivine":4619,"Ġflame":4620,"Ġobed":4621,"exam":4622,"true":4623,"Ġsurface":4624,"Ġsalt":4625,"Ġcamping":4626,"Ġterrible":4627,"Ġprovide":4628,"Ġwonder":4629,"Ġpsalms":4630,"Ġinfirm":4631,"Ġvestments":4632,"ieremias":4633,"Ġhyacinth":4634,"Ġweakened":4635,"shepherd":4636,"Ġdeclare":4637,"Ġassembly":4638,"purple":4639,"Ġlarge":4640,"Ġishmael":4641,"cour":4642,"ceremonies":4643,"ground":4644,"greet":4645,"horn":4646,"io":4647,"oso":4648,"sto":4649,"sachar":4650,"Ġsi":4651,"Ġbash":4652,"Ġmak":4653,"Ġmaid":4654,"Ġfer":4655,"asant":4656,"Ġcase":4657,"Ġcards":4658,"Ġdue":4659,"Ġdimin":4660,"Ġpublic":4661,"Ġissachar":4662,"Ġshut":4663,"Ġeither":4664,"loose":4665,"beast":4666,"che":4667,"ongues":4668,"Ġnoah":4669,"Ġovercome":4670,"Ġplan":4671,"Ġprosp":4672,"Ġorphan":4673,"Ġoffense":4674,"Ġyoke":4675,"sharing":4676,"ivion":4677,"urely":4678,"Ġeating":4679,"Ġgild":4680,"Ġgibe":4681,"besides":4682,"Ġburns":4683,"Ġconfusion":4684,"Ġgoodness":4685,"pleasing":4686,"remind":4687,"Ġcontempt":4688,"Ġarms":4689,"Ġspoils":4690,"Ġprayed":4691,"Ġhides":4692,"Ġslaughter":4693,"Ġwait":4694,"Ġwaves":4695,"duces":4696,"Ġsabbaths":4697,"Ġchaldaens":4698,"moreover":4699,"Ġmagnified":4700,"Ġdisplea":4701,"Ġpermitted":4702,"Ġwealthy":4703,"aversions":4704,"Ġtransgression":4705,"Ġpraised":4706,"Ġmiracles":4707,"Ġscarlet":4708,"expensive":4709,"Ġsharp":4710,"Ġbenefit":4711,"measuring":4712,"Ġsupplication":4713,"osoly":4714,"Ġbashan":4715,"birds":4716,"cross":4717,"galilee":4718,"hail":4719,"port":4720,"tree":4721,"vaul":4722,"Ġodor":4723,"acy":4724,"Ġwrong":4725,"Ġsong":4726,"Ġmat":4727,"Ġmet":4728,"Ġpestil":4729,"Ġlower":4730,"roof":4731,"Ġiordan":4732,"Ġinner":4733,"Ġep":4734,"ades":4735,"altar":4736,"Ġarrows":4737,"Ġreward":4738,"Ġreuben":4739,"Ġnathan":4740,"Ġant":4741,"ption":4742,"sedec":4743,"Ġrings":4744,"commotion":4745,"Ġchast":4746,"shade":4747,"ignite":4748,"sprout":4749,"Ġperished":4750,"Ġstands":4751,"play":4752,"Ġnearing":4753,"breathes":4754,"mell":4755,"Ġobserved":4756,"Ġpost":4757,"herb":4758,"Ġjeho":4759,"fullness":4760,"rankin":4761,"emption":4762,"emptiness":4763,"Ġprayered":4764,"Ġgraven":4765,"Ġparents":4766,"Ġsleeping":4767,"Ġcreatures":4768,"fearing":4769,"Ġdemon":4770,"maiden":4771,"Ġzebul":4772,"Ġfastened":4773,"Ġdeny":4774,"Ġequip":4775,"Ġrebuke":4776,"Ġheeded":4777,"Ġrushed":4778,"nagogues":4779,"Ġdonkeys":4780,"Ġprovoked":4781,"Ġmurder":4782,"Ġshepherd":4783,"Ġsnare":4784,"stretching":4785,"sleep":4786,"beautiful":4787,"Ġintroduced":4788,"Ġkinships":4789,"rankinc":4790,"ca":4791,"care":4792,"cattles":4793,"fold":4794,"girl":4795,"liness":4796,"sum":4797,"zor":4798,"Ġwarm":4799,"Ġsif":4800,"erx":4801,"Ġbodies":4802,"ator":4803,"esau":4804,"abul":4805,"Ġbefor":4806,"Ġthrew":4807,"Ġlod":4808,"Ġheal":4809,"Ġshem":4810,"vere":4811,"verty":4812,"early":4813,"urches":4814,"Ġjes":4815,"Ġnet":4816,"Ġasaph":4817,"soiling":4818,"Ġplain":4819,"neies":4820,"necessary":4821,"Ġherds":4822,"Ġvan":4823,"Ġexerc":4824,"Ġcalls":4825,"Ġabram":4826,"Ġbeforehand":4827,"Ġabouted":4828,"Ġsends":4829,"Ġafterwards":4830,"perhaps":4831,"Ġquen":4832,"Ġbrea":4833,"azar":4834,"Ġstock":4835,"sheep":4836,"Ġgathering":4837,"Ġvisited":4838,"Ġfellow":4839,"umbling":4840,"Ġcollecting":4841,"ashing":4842,"Ġtreasure":4843,"Ġfoolishness":4844,"belie":4845,"Ġcontinued":4846,"axerx":4847,"Ġequal":4848,"Ġdespised":4849,"Ġvineyards":4850,"Ġpatience":4851,"calfs":4852,"Ġrulers":4853,"labor":4854,"Ġstirred":4855,"Ġclearlied":4856,"Ġappe":4857,"Ġcontrad":4858,"milk":4859,"Ġtithes":4860,"ffective":4861,"Ġeloquence":4862,"rankincense":4863,"different":4864,"ell":4865,"eon":4866,"fright":4867,"narrow":4868,"sar":4869,"six":4870,"tal":4871,"tali":4872,"wrong":4873,"xic":4874,"inn":4875,"Ġskins":4876,"Ġbalaam":4877,"esar":4878,"esop":4879,"Ġmesh":4880,"Ġcaleb":4881,"Ġlions":4882,"Ġinvo":4883,"Ġintent":4884,"Ġinitiates":4885,"Ġhebron":4886,"force":4887,"Ġtorn":4888,"Ġused":4889,"irmed":4890,"amorrh":4891,"Ġarrange":4892,"elt":4893,"Ġforce":4894,"Ġrecl":4895,"Ġnabuchodonosor":4896,"Ġmanif":4897,"Ġoverturned":4898,"Ġpluck":4899,"Ġprove":4900,"ideon":4901,"ault":4902,"aia":4903,"contract":4904,"Ġprince":4905,"Ġboat":4906,"Ġorders":4907,"flame":4908,"Ġimpiety":4909,"Ġcutting":4910,"otam":4911,"Ġsatan":4912,"Ġinherits":4913,"Ġcountenance":4914,"Ġcrowds":4915,"Ġbrings":4916,"Ġprovinces":4917,"Ġscript":4918,"Ġcanaanite":4919,"Ġtown":4920,"Ġabomination":4921,"Ġrecede":4922,"Ġwithdrawn":4923,"Ġtrumpets":4924,"Ġsamson":4925,"Ġsamaria":4926,"Ġdeceitful":4927,"Ġsolitude":4928,"Ġsarah":4929,"spirits":4930,"promising":4931,"Ġsplend":4932,"Ġsexual":4933,"Ġperceive":4934,"Ġvestibule":4935,"esopotam":4936,"cial":4937,"folly":4938,"javelin":4939,"kings":4940,"mach":4941,"mast":4942,"oak":4943,"pities":4944,"sm":4945,"sho":4946,"uge":4947,"sebon":4948,"ander":4949,"noise":4950,"ariah":4951,"Ġhorn":4952,"Ġaz":4953,"Ġahead":4954,"Ġfift":4955,"Ġofed":4956,"Ġcaught":4957,"Ġgideon":4958,"rokes":4959,"Ġshield":4960,"Ġarise":4961,"ics":4962,"Ġoint":4963,"whirl":4964,"Ġkad":4965,"Ġnaph":4966,"Ġdeal":4967,"Ġoutcry":4968,"Ġwept":4969,"Ġrene":4970,"Ġconnect":4971,"moving":4972,"Ġearthes":4973,"Ġadored":4974,"dev":4975,"Ġragu":4976,"Ġjoin":4977,"plic":4978,"plate":4979,"Ġlaws":4980,"rawling":4981,"watch":4982,"Ġfourteen":4983,"Ġflees":4984,"duct":4985,"Ġdeserted":4986,"Ġbearing":4987,"remaining":4988,"prison":4989,"price":4990,"Ġbarley":4991,"Ġstretches":4992,"Ġdisturbs":4993,"Ġfullness":4994,"friendly":4995,"equipped":4996,"Ġlooks":4997,"areaes":4998,"Ġpasture":4999},"merges":["s e","se p","> <","t h","a c","a n","th e","i n","an d","n o","ac t","Ġ the","o u","e n","Ġ w","o f","no m","a r","Ġ h","Ġ s","i t","e r","l l","Ġ b",", <","ac c","o r","a t","o n","in g","i s","e d","t o","e s","a b","y ou","Ġ and","g en","Ġ m","Ġ a","Ġ f","Ġb e","Ġw i","Ġ of","ab l","a s","a y","r e","Ġ c","h o","l e","Ġwi ll","Ġ you","p ar","Ġ to","Ġ d","Ġ g","Ġ p","Ġ th","Ġ l","v e","r o","Ġ i",": <","Ġ in","Ġh a","Ġ is","i m","o w","a ll","the y","Ġh e","f or","no t","Ġ t","s t","Ġthe m","Ġs h","Ġ e","o d","Ġ u","Ġ <","l d","w ho","i d","ow n","i r","u t","ou t","or d","a m","r i","Ġha ve","a d","a l","v er","o m","g h","Ġ ar","a k","e l","Ġ se","Ġ it","i c","Ġf or","p as","i on","e ar","d at","Ġth at","r a","en t","Ġw h","a u","the r","u r","l o","Ġ not","Ġ j","b e","Ġw ho","on e","m ay","Ġar e","Ġ re","Ġsh all","Ġyou r","Ġ o","u s","Ġwi th","Ġs a","ro m","er e","Ġh is","Ġthe y","gh t","w h","ac h","i l","Ġu p","c h","Ġl ord","b ut","a in","le t","ab out","Ġw as","Ġh im","n d","c e","Ġf rom","i f","Ġg od","Ġ k","own er","p e","Ġs ay","you r","er s","Ġg o","Ġ n","r u","on s","Ġa s","es t","l y","ou ld","lo c","Ġs t","es s","Ġsa id","v en","au se","Ġm ay","e t","m y","b y","Ġ an","se s","Ġa ll","at ion","ak e","Ġs o","o p","c ause","i es","Ġm e","u l","Ġm y","ou r","h is","Ġh as","Ġw ere","for e","e ach","ur n","w e","i ve","Ġc om","Ġ \"","ro w","se l","no w","Ġ on","n t","u d","Ġm an","Ġthe ir","e m","t er","r ou","g e","Ġ le","v es","it y","h im","Ġl i","in d","h e","p t","c t","d own","Ġbe en","u st","Ġha d","Ġd e","k e","th at","Ġa m","wh en","am e","ra el","i ll","u n","Ġth is","as t",". \"","ac e","en d","th is","Ġ one",". <","on g","i ght","v o","ar d","Ġ no","Ġa l","Ġb y","ic h","Ġi f","Ġo ver","Ġ out","p p","Ġw e","ing s","op le","an t","Ġp e","a h","Ġsay s","at e","p h","u m","g o","a ther","Ġsh ould","se d","a th","Ġwh ich","Ġd o","w ay","l es","Ġ r","q u","Ġs ons","i e","c om","be cause","Ġh o","Ġc on","v ing","in e","ic e","Ġh and","Ġ at","s o","is t","Ġm o","m o","ou se","ho w","o se","Ġth row","Ġp l","the re","Ġb ut","the m","sel f","Ġwh en","Ġd ay","Ġs on","v ed","Ġw ould","rou gh","is h","Ġp ro","Ġthe re","ak ing","Ġ or","ad e","n e","el y","k ing","ho ld","Ġthrow n","Ġk now","an s","Ġh er","Ġup on","n ess","ear th","Ġ v","Ġe x","o o","a ve","Ġs p","er ed","ou nd","Ġc h","Ġpe ople","Ġof f","g od","Ġm ake","Ġ y","n am","re at","im e","vo c","Ġu n","o s","Ġe ar","Ġ owner","ou s","e p","r y","g ain","Ġm ade","m ent","Ġhe ar","Ġin to","i re","k ed","Ġa d","nam ely","Ġs in","Ġcom e","Ġa way","Ġm en","Ġle ad","i g","ou nt","Ġsh e","t ed","Ġj ud","Ġth ose","i ed","abl e","i se","Ġc all","Ġn e","an ce","Ġ ent","Ġj ust","there fore","Ġli ke","Ġu s","t s","no r","Ġf ather","Ġw or","es us","Ġis rael","Ġa gain","Ġbe cause","Ġbe h","is rael","Ġl and","Ġk ing","l a","Ġ ab","ver y","nd er","Ġg ive","t urn","ou l","ir st","w ord","Ġd own","u ch","Ġb ac","Ġt ake","the n","Ġear th","id e","Ġc o","Ġ acc","i p","a le","au l","in to","a g","a ven","m an","n ing","r en","Ġse e","Ġse r","k s","Ġth ings","Ġs pe","s h","Ġp re","th rough","ation s","Ġthe se","Ġ ru","y es","h and","Ġwh at","l ed","Ġbe fore","i v","Ġw ord","Ġl if","a i","Ġ ri","Ġh ouse","g y","ro ther","Ġw ay","t ing","gy pt","Ġt urn","al f","Ġ en","f ul","Ġsay ing","Ġal so","s ons","u re","aul us","l or","ul t","Ġg reat","Ġl o","au ght","s ay","re e","d e","i le","d ay","Ġt ru","ri est","com e","Ġpl ace","s on","or e","Ġa f","Ġd is","j ust","i z","Ġagain st","c on","Ġa pp","Ġt ime","Ġw at","re ad","par t","at ed","r ing","Ġd es","ig n","l i","Ġit s","in k","? <","h ouse","Ġgo es","ren g","t ri","Ġf e","Ġe ven","Ġ our","Ġi m","u e","th ing","Ġno r","t le","ount ain","er ing","Ġre m","o ther","Ġp r","ow er","w o","say ing","u b","Ġ ro","Ġu nder","it ies","Ġp ut","y one","s pe","Ġe at","Ġg i","w ard","Ġin h","Ġthe n","lo od","n ear","be hold","ab it","a e","an g","s p","l ess","e ct","Ġp er","d om","p ro","er us","ear s","ale m","erus alem","an c","i gh","it e","Ġse t","Ġse nt","the s","Ġe gypt","a ies","Ġ ra","who le","Ġbeh alf","wh at","c k","er n","Ġc ar","t y","on d","Ġg ave","o k","wh ere","ar y","Ġb u","or n","d o","e ver","o b","o ll","mo st","i b","Ġj esus","a p","ver s","s w","Ġcall ed","Ġd id","Ġf ear","Ġspe ak","Ġ let","a w","Ġsa w","en ed","se r","pe ople","com m","Ġ able","Ġ '","ud e","l ar","Ġhe aven","Ġbac k","r ed","Ġcom m","c end","u ll","Ġf all","Ġhear t","Ġad v","lor y","h ear","Ġbe g","Ġth rough","Ġs c","ri f","Ġam ong","Ġe very","ge ther","Ġser v","Ġwho m","Ġmo ses","Ġe ach","Ġp os","ir d","it ude","Ġn ame","al one","Ġjud g","ou th","Ġp riest","Ġ about","le a","a il","Ġr es","b es","an yone","Ġb urn","Ġto gether","Ġb rother","Ġt ri","Ġst and","ment s","th us","it s","Ġre ce","sel ves","Ġcon f","f irst","j o","b er","Ġse nd","we ll","c o","Ġc l","Ġs oul","Ġday s","w ill","him self","Ġbe hold","Ġgo od","ant s","at es","go ing","Ġan sw","Ġj o","a v","l ing","ion s","Ġc ons","vo ice","Ġhand s","Ġf ill","p l","Ġup ed","Ġaf ter","p le","an ct","Ġinh abit","st and","reng th","Ġc ity","r ist","j esus","le an","or t","Ġf ire","Ġhe ard","y ing","Ġbe come","Ġ z","Ġn ear","Ġ own","Ġs w","ac ing","ph et","x t","r ong","Ġre turn","f ather","p er","Ġin st","? \"","Ġw om","s oul","i ld","i ah","n ame","as s","u c","Ġp h","Ġan g","Ġlif e","Ġoff er","re t","a ir","r ink","ac rif","Ġb o","ous and","Ġha pp","ar e","ish ed","o ve","u nd","Ġgi ven","m aking","Ġw al","d en","l on","ar m","o l","Ġd ie","im on","Ġw ent","Ġp ers","Ġbeh ind","Ġm id","Ġc ame","oll ow","f acing","rou ght","ro y","em ies","Ġword s","Ġacc ord","Ġf irst","Ġar ri","ac ob","ar on","r it","go od","oo l","v il","Ġo ther","b re","i ous","Ġse en","he ad","Ġl aw","ak en","Ġm ult","re m","is dom","a pe","Ġcon t","aught er","Ġrem ain","Ġf ace","ir c","ai th","spe aking","m on","Ġhim self","o od","Ġan y","Ġm uch","lar ge","Ġp ower","f e","Ġwh ere","Ġ ord","oo k","Ġman y","Ġs ame","ent s","Ġs il","mo ses","Ġc lo","Ġe yes","am p","Ġfor th","j ud","Ġha ving","ru ct",". '","Ġs u","ver ed","Ġde ath","Ġb rought","Ġse a","Ġrece ive","Ġ gen","ab y","Ġho ld","m e","Ġ qu","Ġs anct","it tle","or s","Ġ now","n ed","ar k","aby lon","Ġansw ered","ri ed","p o","er c","op les","Ġt est","Ġt wo","Ġ part","Ġd el","al s","Ġ voice","Ġd iv","Ġan other","Ġf l","rou nd","ra w","comm un","Ġe vil","i sed","Ġs ight","Ġha l","ic t","ou ght","Ġadv anc","w at","Ġd est","will ing","m ans","ie ld","Ġl ong","ses s","u nder","f l","es ses","ar a","Ġsp ir","b ad","t we","twe en","Ġb ring","Ġc an","o h","en ce","Ġo b","Ġapp ro","el s","Ġgo ld","om e","Ġy et","g r","Ġb re","Ġp o","Ġc ast","Ġho ly","Ġb lood","ar s","i qu","in s","Ġth an","im b","Ġhe ad","Ġm ight","Ġun willing","Ġr est","ro s","Ġent er","Ġg lory","h er","t ain","Ġm ountain","Ġto ward","Ġl ed","Ġj erusalem","Ġk ill","is ing","Ġjud ah","Ġaccord ing","w or","Ġ very","Ġf ar","Ġf ollow","a ving","ir th","m ed","la im","Ġpers on","i ved","les sed","a z","m ountain","Ġcom es","f f","Ġch rist","Ġm ast","in ning","ic k","ch ed","if ied","Ġfather s","Ġse iz","in t","nt il","Ġdes cend","t en","Ġs to","on es","Ġin iqu","b rother","ra h","w ise","Ġs acrif","ag es","ar i","be fore","Ġspir it","at ter","Ġg r","Ġmast ers","Ġ act","Ġout ed","j erusalem","Ġp our","if e","Ġpe ace","Ġ ac","Ġg u","se n","Ġs word","it es","a pt","Ġb abylon","Ġar m","Ġim p","ib le","Ġy ears","Ġu ntil","Ġl ive","Ġj e","Ġse ven","Ġ end","ter n","Ġdis c","f ull","f air","Ġmid st","Ġt w","Ġsp o","Ġre p","Ġk e","ri ght","und red","av id","t ime","la w","Ġh ow","Ġs it","s he","Ġto ok","Ġpro phet","Ġh undred","e x","us h","Ġthere fore","en s","at tle","Ġwor k","Ġwat er","Ġs how","Ġcl imb","a ge","in es","am b","em ple","Ġres p","Ġm outh","t each","t end","jud ah","d aies","ch es","s ide","Ġ abl","Ġd one","ne xt","Ġc ut","Ġunder stand","a se","Ġab ove","b lood","Ġm erc","st s","Ġho nor","Ġcomm and","l ave","r an","u p","ab b","all s","Ġd ist","if t","w om","the d","em pt","imon y","Ġwi fe","Ġl ittle","ros s","c laim","Ġd rink","Ġjust ice","Ġmen s","Ġpr ay","b le","Ġhal ves","at s","Ġt r","aught ers","c irc","ar ch","Ġpl ac","Ġup ing","ou ses","Ġen emies","b ound","i x","Ġm ore","Ġbe l","l ate","Ġn ight","f t","ves sel","ri end","Ġinst ruct","Ġb less","sh ape","ra ise","hear t","Ġhapp en","d iv","n er","at ing","Ġde v","Ġpre par","Ġa aron","Ġgo ing","ep s","f rom","i ther","ie w","ist en","t ent","Ġbrother s","c lean","t ru","se nt","Ġdest roy","Ġwat ers","as ure","Ġent ire","ara oh","Ġg ather","Ġappro ach","al m","Ġb read","c ed","Ġf am","Ġf ound","ra g","wh ile","Ġdo es","Ġlead ers","p s","Ġc ause","ak es","s ible","Ġwom an","Ġwe ll","v iew","Ġs ome","Ġv is","word s","g et","k en","Ġa w","Ġst rength","ne ed","sep h","in ed","Ġwho ever","Ġt aken","Ġpriest s","' s","i a","Ġmo ther","bre ath","h ind","Ġf aith","Ġth ousand","im es","Ġwith out","ast s","tri bes","li ke","Ġpos sess","rah am","t e","Ġb irth","Ġwor ks","p riest","m uch","Ġc ities","Ġt ab","Ġmult itude","les h","Ġord er","y ond","er ation","near ly","i el","wh y","Ġex al","Ġf lesh","Ġapp ear","w s","be hind","Ġserv ant","Ġadvanc ed","b less","ac le","Ġg ra","un fair","Ġbac ked","m all","n esses","r on","Ġs ub","e yes","Ġjudg ment","Ġtab ern","t ake","Ġw isdom","ic es","Ġman s","Ġcar ry","commun ity","Ġresp ond","g ar","Ġ par","Ġh id","Ġn ations","l ad","o t","a f","Ġfe ll","ur b","Ġle ave","be tween","Ġtru th","i ving","Ġc ho","Ġarri ved","i th","Ġb l","con vers","r es","Ġk ind","Ġf our","Ġwh ile","Ġst rong","just ice","Ġb lessed","Ġar ound","Ġco ll","b o","n g","se c","st rength","Ġal ong","Ġri ght","Ġspo ke","Ġoff ered","Ġri se","Ġthem selves","Ġcon ce","Ġpos sible","il t","Ġiniqu ity","i ing","Ġp ass","he aven","Ġde f","t ar","Ġl ook","Ġpe oples","act ing","Ġc he","one y","m a","pe t","Ġent ered","Ġspe aking","s y","g lory","Ġs le","Ġgu ard","Ġmerc y","Ġd aughter","Ġt ou","ate ver","Ġy ear","Ġke ep","u al","Ġcom p","Ġwal k","Ġsil ver","Ġin c","Ġmo st","Ġsin ning","e ven","Ġth us","row s","Ġking dom","Ġdisc ip","ar ly","Ġh igh","Ġth ree","Ġo p","Ġlo ve","p os","od y","ic ked","Ġwith in","f er","Ġlif t","ou n","Ġw ind","Ġs at","ain t","Ġover ed","Ġf ield","Ġbe ing","Ġli ght","d s","ool ish","am in","um b","Ġbu ilt","y e","Ġf le","ord an","s lave","Ġs un","um ber","w icked","Ġd ri","Ġp as","ph ra","Ġwor ld","ac k","all y","Ġtest imony","i as","t ter","it ion","Ġg lad","Ġt each","Ġon ly","Ġpro claim","Ġsto od","e gypt","u ary","Ġh or","ir l","rit ing","d u","e ad","j acob","k now","se a","ce pt","Ġcoll ect","en e","Ġp it","ere m","s u","Ġs ur","Ġjud ge","Ġser ve","Ġserv ants","Ġfill ed","Ġtr ans","c ked","er tain","id ed","ur y","Ġk ings","Ġho pe","Ġdel i","Ġr ed","ne w","Ġsc atter","Ġf ail","Ġl isten","s c","Ġm on","Ġsacrif ice","Ġdev our","Ġbe at","re et","Ġha ves","Ġe m","Ġw ine","ro g","if y","Ġinstruct ed","div ine","Ġtabern acle","phra im","ir m","ess ing","g er","Ġp lea","turn ing","y et","Ġwill ing","Ġtru ly","ern al","b u","Ġm ar","Ġp ur","p ity","th ird","Ġs al","Ġto ed","no un","Ġp raise","sh ip","Ġtru st","in king","il ed","Ġru les","Ġac qu","Ġturn ed","b urn","Ġf ru","Ġd raw","ent y","Ġsin ned","Ġinh er","Ġs l","Ġc lean","ok en","o ld","in ess","Ġst ru","Ġsp oken","sp ring","ict im","b ul","th ousand","Ġt emple","Ġal tar","i an","n a","Ġd ark","Ġhe l","Ġse arch","Ġj acob","Ġde ser","Ġph araoh","t il","Ġg ate","Ġre g","Ġle ft","wo od","z ar","im il","ul ar","Ġw ra","Ġbe ar","rem ain","Ġc ry","Ġas cend","g ive","Ġth ink","Ġg ar","Ġo ld","ong ue","them selves","Ġc le","Ġc ount","le ad","ow s","Ġt imes","am s","Ġne ed","Ġbo th","a an","as h","Ġc ur","Ġl ab","ir ty","Ġho sts","Ġarm ies","abb ath","se at","ce ed","Ġli ving","reng then","af ter","Ġst ri","Ġaw a","ow ing","ou gh","Ġm aking","ie ce","Ġre ve","ch ing","Ġadv ance","Ġmon th","Ġfam il","et ernal","Ġcons um","f ill","f ire","brother s","Ġimp ious","id es","ain s","Ġli e","unfair ness","Ġf ree","Ġp rom","ow ed","Ġwh e","Ġgod s","Ġne w","e ch","p re","Ġknow s","bless ing","a ut","h aving","i ans","Ġch ild","led ge","Ġtri bes","Ġne ither","g ra","l ight","p ed","Ġstru ck","m ult","al th","Ġno thing","Ġcons id","b read","w isdom","ar ies","re ed","Ġ es","at ely","st rong","Ġco ven","co ver","c es","f oo","s word","en se","Ġo il","Ġo pp","ain ted","Ġoff ering","g u","g ed","is ter","Ġrem em","vessel s","m ake","Ġc reat","wat er","Ġabl es","ri e","Ġde c","Ġcont in","Ġrespond ed","f ear","Ġwi cked","Ġc e","Ġt en","ep ing","Ġsw ine","Ġcoven ant","b r","y s","Ġbu ild","ap iece","wom an","s aint","Ġpre sent","pro phet","w ife","Ġc ertain","Ġad d","Ġfe et","Ġfle e","at t","as on","Ġi ll","Ġco ver","Ġacqu ainted","p ower","Ġs uch","al ed","Ġst one","i ses","Ġwas h","v i","ro ke","if ul","Ġinher it","m or","Ġc row","Ġe tern","b ar","g reat","p ut","s ing","Ġd well","Ġt re","Ġgen til","Ġgentil es","p r","Ġd aughters","ly ing","Ġpo or","Ġf oolish","Ġbac king","Ġmult ip","s mall","Ġf ight","Ġth ird","Ġre jo","Ġon es","o th","op ular","Ġde ad","com ing","Ġburn t","Ġconf ess","Ġyour self","Ġover ing","tri al","Ġmountain s","Ġprepar ed","i ent","Ġb r","Ġst rengthen","Ġab raham","Ġra ise","Ġsu pp","thousand s","h n","Ġc amp","Ġbel ie","f aith","l s","p ri","Ġm ind","Ġwi se","all ow","w aies","Ġf ind","Ġc or","way s","orn s","Ġang el","Ġsu ff","Ġ sep","Ġway s","de ath","wor k","a ld","c ess","is on","god s","i et","r est","Ġw a","it ed","le m","Ġdown ed","Ġsanct uary","Ġexal ted","Ġb ar","Ġth ought","on ly","who ever","Ġco vered","i ae","ic ation","b el","b ear","d avid","Ġ er","Ġs ide","Ġb es","Ġst ill","et s","s inning","Ġd em","Ġd avid","Ġthem self","ound ed","Ġinst ead","roy al","l ied","w riting","Ġm akes","ur ed","pe oples","Ġstand ing","bound ary","mult itude","c l","d uc","h u","ch rist","Ġsit ting","d le","s il","Ġw rit","Ġs ing","Ġto p","Ġbehind ed","a sed","g ing","Ġwi d","Ġt er","Ġplac ed","a ac","h ouses","ab ove","am en","Ġre l","Ġdiscip les","m outh","n s","Ġa ge","Ġan yone","Ġdiv ided","Ġw ood","Ġyou ng","Ġe phraim","Ġsin s","iz e","n ers","Ġwh atever","Ġan noun","ph er","Ġtri be","a ph","a aron","no thing","Ġl est","ur ing","pp ed","Ġs ign","Ġro se","wat ers","e pt","Ġf riend","ur es","Ġre ign","pe ct","Ġst ret","Ġprophet s","l ife","an iel","Ġs abbath","Ġt e","Ġt ent","Ġwho le","ph es","Ġwat ch","Ġsur round","Ġfru it","g es","Ġs ix","Ġwi ld","Ġc apt","all e","pe ace","loc au","ast ing","Ġoff spring","Ġlif ted","Ġlong er","Ġje ws","i ves","se nd","Ġho locau","Ġlead er","Ġshe ep","a thes","t r","th row","be yond","Ġnor th","s la","z e","en emies","Ġde par","Ġknow n","po or","c an","p opular","r ang","ou d","Ġb ody","al a","ver t","Ġfor ever","jo y","Ġsil ent","Ġseiz e","convers ation","d iing","se ed","re w","Ġp ri","Ġl amb","Ġre qu","Ġre ason","Ġupon ed","Ġwra th","Ġru le","m er","Ġw ant","Ġt ree","ir es","Ġse w","Ġwho se","Ġper ish","Ġm or","Ġfor ward","Ġcomp let","h ere","y ear","se ing","Ġh ere","Ġp et","Ġacc om","Ġaf fl","Ġpossess ion","Ġe ver","Ġu se","Ġacc ount","Ġacc ept","hand s","iv ity","ang el","Ġconce ived","d aughter","Ġc r","Ġe ld","am ent","Ġhear ing","Ġlo ved","comm end","Ġheaven s","Ġsle ep","Ġdeser t","b or","in ts","Ġf oo","ir ed","ak ed","Ġre ad","Ġon ce","Ġhapp ened","Ġtw enty","e c","Ġcar ried","Ġwrit ten","d es","e ed","o ver","Ġde ce","ap s","Ġgen eration","Ġpour ed","loc k","anc es","Ġdist urb","ac les","Ġo x","Ġal ive","ans w","pet ual","bul ation","imil arly","o in","is ion","up on","r ising","v ation","or r","Ġf ive","Ġf ull","Ġwh y","our ne","ind eed","do or","commun ities","b l","i al","w ine","y ears","an an","Ġh ar","Ġg lor","ad ness","Ġhid den","sec r","Ġn umber","spe ak","pro ach","d well","h igh","o il","u g","Ġl im","Ġe ye","um c","Ġne igh","Ġjo y","foo ts","hu a","Ġmor ning","f riend","k in","Ġup side","Ġfe ed","Ġbeg an","Ġreturn ed","Ġseiz ed","priest s","Ġappear ed","sil ver","b attle","se e","Ġb en","Ġb ore","Ġin d","Ġfor e","Ġout ing","Ġfall en","Ġplac es","Ġtou ched","s acrif","en g","Ġbe asts","ord ers","Ġle aving","Ġv ir","Ġen c","Ġtogether s","Ġawa ied","d raw","s ion","Ġ ed","be g","Ġpro phes","Ġknow ing","os ue","ign ation","Ġinhabit ants","Ġkill ed","Ġaccom pl","v al","Ġf ine","Ġar my","Ġst ones","Ġri ver","ourne y","a pp","i er","Ġc oun","Ġp ort","Ġas k","Ġra ised","i am","Ġc ub","Ġsa ve","Ġpro v","med i","Ġvis it","g iving","j ect","ra id","Ġsa ints","Ġup s","Ġbre ak","Ġchild ren","Ġ est","it ter","Ġal one","Ġdeli vered","Ġreg ion","Ġlab or","answ ering","c all","d is","e qu","Ġm ag","Ġbe tween","Ġwi thed","Ġl ay","Ġj os","Ġcom ing","Ġaf raid","ae i","medi ately","in ing","Ġf ood","wh ich","ma id","Ġstri ke","re ct","Ġc our","Ġe l","am es","Ġsa ved","Ġr ising","so l","Ġun to","Ġear s","teach ing","Ġcho ose","Ġdef iled","Ġc irc","Ġd aies","al se","he ight","like wise","b and","b ed","n at","Ġs we","es h","Ġd rag","ear thes","gar ments","o seph","r ite","u se","Ġsee k","Ġspeak s","Ġop en","eng th","un ity","Ġdo or","Ġmo ab","Ġmo ved","Ġv ine","Ġex am","Ġany thing","popular ity","h aps","l ift","r one","t ect","Ġm in","le ct","Ġse c","if ic","Ġeven ing","Ġsc ri","gr ace","Ġth ough","id ing","om in","Ġas h","Ġle v","hear ing","Ġother s","to day","Ġbe aut","Ġc ross","Ġu nd","Ġv ictim","Ġbu y","Ġremain ed","ken ess","Ġsep ar","alle y","as ing","Ġg reet","ru pt","Ġso ld","end ing","Ġun clean","m b","the se","Ġm our","Ġp s","Ġl oo","bound aries","d er","f all","th ink","Ġf ury","Ġg irl","st roke","Ġfor s","Ġas s","house hold","Ġjudg es","Ġz e","Ġche w","Ġsal vation","Ġinherit ance","lem n","Ġb ur","ri um","un g","Ġdark ness","rie f","d em","d aughters","t est","of f","Ġin ter","Ġt ra","Ġex p","ag ed","Ġsanct ified","sy ri","Ġcontin u","c ame","d ened","Ġh ouses","Ġf alse","Ġse ed","Ġjo seph","Ġwom en","Ġcan aan","Ġgra in","c er","n ight","o x","o ts","r am","er ations","Ġb ro","Ġb ound","Ġsh ape","ri se","us band","ru st","Ġli ps","Ġru in","Ġcar ves","Ġbeg inning","Ġinhabit ed","Ġgather ed","m ac","Ġw ished","Ġf ast","Ġg one","am ed","Ġre lea","Ġru n","de b","ile e","ser ve","co vered","Ġj ordan","Ġli ved","oin ted","a id","r ance","w id","Ġh ur","Ġb orn","Ġf ul","Ġbe yond","ve l","pos sess","Ġcoun sel","Ġful fill","m ade","Ġh ard","Ġf led","Ġrece ived","stand ing","Ġtw el","Ġem pt","Ġcub its","c ur","f ect","Ġf if","ho nor","ul ate","Ġon ing","Ġlo t","con f","Ġdri ve","Ġscatter ed","d ist","m it","w ith","Ġh um","Ġg ates","st one","Ġme et","Ġpl ant","Ġknow ledge","Ġsin ce","tru th","k ill","and on","Ġw all","Ġw ond","Ġhe ld","ut e","Ġle ar","Ġz ion",", '","t emple","Ġw ar","loc ks","ud ents","ish ing","Ġex tend","Ġen e","Ġdiv ide","Ġcreat ed","Ġholocau st","h em","l ittle","m ing","s anct","v est","Ġbe came","Ġd ied","Ġar rog","Ġme asure","ant e","Ġmo ve","ward s","Ġevery thing","soul s","head er","Ġunderstand ing","know ing","Ġeld ers","Ġjos hua","Ġene my","a al","c ks","Ġa st","Ġfor n","Ġj erem","fore ign","Ġsw ore","Ġph ar","Ġclo se","Ġob l","mountain s","a gain","f ine","Ġbe th","as c","Ġin de","ru n","Ġbre ath","Ġgar ments","Ġopp os","duc ed","sla ves","Ġcr ush","Ġjerem iah","Ġm ount","Ġf at","Ġg et","Ġis aac","ent ly","Ġpro p","jo ying","Ġps alm","a x","b orn","r or","th y","le ch","Ġth ing","if ying","em ed","ath an","Ġansw er","heaven s","l um","en joying","Ġl amp","ard s","mo ther","Ġwal ked","Ġbelie ve","Ġneigh bor","mac ulate","Ġe li","Ġde part","ast e","Ġsp rink","turn ed","per petual","Ġte ll","Ġinde ed","a header","b en","c ar","l and","ay ing","Ġc ried","Ġp ity","Ġas syri","ie f","Ġho l","Ġwor ked","circ le","Ġest abl","b lessed","d r","or y","or ted","gen eration","al t","Ġan im","ind ing","Ġjudg ments","are a","convers ations","Ġrejo ice","m id","Ġ vessels","Ġh usband","Ġas ide","Ġdes ol","Ġclo thed","b an","h el","Ġw and","it ting","to m","as ses","re g","Ġt ongue","Ġo be","owner s","Ġlo ves","Ġcomm unity","Ġoppos ite","s in","Ġm al","re am","Ġp ast","ord er","tri be","father s","full y","Ġpit ied","d irty","f ollow","f ood","k els","Ġh ated","Ġf reed","Ġth rone","Ġon ed","rem em","Ġdescend ed","Ġcommand ments","Ġtrans gr","Ġs y","Ġs or","er ub","as k","as ter","Ġd en","Ġt aking","Ġr am","Ġupon ing","Ġch ald","tri als","pl ain","Ġqu iet","ick ly","Ġclimb ed","ran ches","Ġplea sed","Ġreve al","Ġswe et","Ġlev ites","Ġtwel ve","g ate","t w","Ġb ook","ri ch","Ġthrough out","ird s","Ġhor se","t ongue","ab raham","un just","go ld","Ġv i","lea ving","Ġtri bulation","av or","Ġpas sed","c ent","c row","i osue","Ġto w","Ġi do","Ġfor ing","ere mon","Ġsoul s","Ġord ered","me at","Ġfl our","possess ion","is s","Ġbe tter","abl es","as ph","Ġg round","Ġl ast","Ġin f","Ġyour selves","il ity","Ġam mon","Ġconsum ed","t in","t ro","Ġh arm","Ġto o","Ġme ans","Ġli ing","Ġab omin","iz ed","Ġgr ace","Ġaffl ict","dwell ers","s un","Ġm ust","Ġd ry","Ġd iing","Ġre ced","Ġpr essing","po sed","Ġproclaim ed","Ġfamil ies","Ġmultip lied",", \"","ut ed","Ġn ation","Ġdes ire","Ġcomm it","Ġfamil y","Ġetern ity","f ield","l amb","Ġc alf","Ġe qu","Ġre ach","Ġmy self","Ġam en","Ġjo hn","Ġcomplet ed","Ġassyri ans","e k","g ates","Ġp ath","Ġas ked","ul ter","Ġat tend","Ġjudg ed","Ġoffer ings","Ġdestroy ed","Ġalong s","Ġop ened","l ong","m ar","as tern","Ġth irty","al ways","al ilee","Ġse es","Ġwith draw","Ġal iving","Ġab andon","Ġgreat er","Ġcons o","Ġgr ind","Ġrep ay","Ġstrengthen ed","sacrif ice","Ġport ion","d ark","f ied","i gen","Ġb ow","Ġc attle","ur ch","Ġex ult","Ġdes p","Ġfe ast","Ġper haps","Ġang er","du ce","> (","f ar","Ġh umb","er ness","Ġdo ors","Ġch ar","Ġpre v","Ġqu est","Ġtre es","Ġfoo t","t re","u th","Ġw ish","lo t","Ġre bu","Ġpre cept","con d","Ġconf ounded","Ġapproach ed","Ġinc re","p ret","u ous","Ġw it","Ġs outh","Ġto b","ent er","Ġgi ving","near est","Ġbless ing","ceed ing","mid dle","b irth","c ho","of fer","Ġm il","Ġg row","Ġp ick","ion ed","Ġex cept","Ġfl ow","Ġcertain ly","Ġdepar ted","deb ate","f ru","h our","Ġfor ty","Ġne xt","Ġru led","Ġqu ickly","ran ge","gar ment","Ġconsid er","Ġbro ken","Ġvi ol","h or","Ġb attle","Ġbe ast","Ġhe ed","Ġover throw","Ġv est","Ġch ari","ime lech","ai ah","lar ger","Ġang ry","Ġfollow ing","Ġascend ed","Ġannoun ce","b led","Ġs ake","Ġfor get","Ġst ay","ven ge","Ġr ush","Ġcon dem","Ġburn ed","Ġang els","ruct ion","Ġbl ind","Ġremem ber","cer ning","? '","c ity","i erem","m ir","ac es","Ġh our","Ġs mall","it i","Ġre f","Ġarri ve","head s","secr ated","m em","v ictim","se h","it ing","Ġb apt","Ġm oney","Ġc ould","Ġd aniel","Ġp le","Ġne ver","Ġsee ing","Ġcollect ed","Ġdeli ver","b ro","c ri","f ines","l ine","p es","Ġ (","Ġ round","Ġse cond","wh atever","ul es","Ġman ner","Ġad ulter","Ġsin ners","Ġtru m","Ġgi ves","Ġred e","Ġgar ment","Ġfore ign","e b","e en","Ġs ound","Ġin ed","Ġfor med","Ġj ourney","Ġhear ts","Ġdel ight","she eps","Ġdevour ed","Ġmar ry","Ġhel p","Ġbes ide","g n","i ordan","j amin","no s","Ġs am","Ġyou th","Ġd on","Ġd read","Ġha ir","lo ok","if ts","um p","ip s","Ġegypt ians","Ġhonor ed","oun dat","c oll","f ree","i amin","Ġre proach","if f","ill ages","Ġv ain","Ġim mediately","Ġclimb s","Ġpray er","Ġund ers","dist urb","m ore","n umber","Ġs um","Ġb or","Ġm aster","Ġf ly","Ġg az","Ġre ap","Ġdis grace","teach er","pri ate","Ġenc ou","Ġvine y","e ye","in en","to od","Ġm el","le br","if es","Ġall s","mo t","Ġsp read","Ġhal f","Ġtou ch","Ġcle arly","Ġetern al","an im","Ġf avor","Ġre commend","Ġli b","Ġli ves","Ġout s","Ġac ross","Ġcommand ed","na go","Ġwild erness","Ġvir t","app ro","sol itude","Ġunders tood","l ic","t ents","u nt","in f","Ġf ish","Ġd ro","Ġg ro","ic ed","ic ho","Ġcon cerning","Ġun covered","ae um","Ġres pect","Ġstand ard","Ġexal t","Ġsl ain","pre par","e th","r ings","t ers","u sed","Ġs lave","es sen","Ġf irm","Ġp at","st ones","Ġo ath","Ġne b","Ġent rust","then ce","li keness","mon th","Ġdisturb ed","m in","Ġb ed","Ġm a","re l","Ġe ast","be th","Ġo c","un ger","Ġwor ship","iz ing","pro sy","Ġfear ed","Ġwom b","Ġpas ses","b abylon","g s","h abit","k es","Ġd r","Ġl ength","ire ct","reng thes","Ġra v","Ġburn ing","Ġph il","Ġtrust ed","Ġreve aled","great er","Ġdece it","Ġben jamin","Ġind ignation","Ġfif ty","c ry","c alf","w all","Ġ ow","Ġb ent","re ams","ic ing","Ġturn ing","xt us","Ġiniqu ities","circ ling","Ġes au","Ġwid th","m al","r out","u le","ac ons","in ces","Ġp ru","for t","Ġar k","ph araoh","Ġat tent","Ġpr ison","imon ies","Ġob tain","teach ings","Ġcause d","wood s","Ġwhe at","Ġpet er","Ġaccompl ish","Ġdon ke","a ff","c r","f ace","m s","t i","w ar","ou ds","Ġh ill","Ġl inen","Ġu tter","ri ver","Ġpro ceed","Ġra in","Ġhor ses","Ġremem b","Ġwash ed","Ġsurround ed","Ġlim its","umc ised","tw ig","Ġprev ail","c amp","l ord","ar rog","Ġs ister","Ġb an","or um","ed uc","Ġwi ves","st udents","Ġco lor","aven ed","Ġunwilling ed","Ġdist ance","bo y","Ġconsid ered","bread s","Ġcapt ivity","orr h","test imony","Ġobe y","Ġrav ages","g ue","t wo","z zar","ab uc","Ġm er","Ġm ed","Ġa vert","ho do","Ġto ld","Ġt able","ad ne","Ġso lemn","Ġout side","so ver","uch adne","Ġim mo","lea zar","jo hn","Ġpo int","Ġseven th","Ġcor rect","door way","remem ber","nos or","abuc hodo","uchadne zzar","abuchodo nosor","c ities","i ence","se xtus","ar is","Ġb itter","Ġa uth","Ġp ull","Ġi ron","ver ted","Ġpro vo","Ġknow ed","Ġv illages","Ġjo ined","Ġsw ear","Ġfam ine","even ing","Ġdri ven","Ġfail ed","Ġplea se","gu ard","mor row","Ġcrow d","cess ary","Ġthought s","bear ing","Ġmag n","Ġhumb led","Ġauth or","b ring","b ody","i oseph","w al","in ks","en ing","Ġh y","Ġb ranches","Ġa g","Ġf lock","id ence","ad d","Ġst eps","Ġso l","Ġhead s","Ġglad dened","Ġwicked ness","Ġsor row","Ġneb uchadnezzar","a el","i or","s imilarly","er y","or ed","to w","Ġd irect","ir on","Ġwe ak","Ġv alley","Ġru l","Ġres c","Ġnear ed","Ġpower ful","Ġadvanc ing","Ġfaith ful","Ġcur se","Ġbr ass","faith ful","Ġsuff er","Ġrelea se","eremon ies","p raise","u es","u el","w ises","in her","you ng","Ġf ig","as seh","Ġhe ight","Ġt abl","ut ion","Ġn ames","Ġso il","Ġman asseh","end ed","spe ech","Ġbo y","Ġdescend s","Ġact ed","Ġprepar e","Ġpar ts","Ġcor rupt","can aan","ific ations","Ġbeaut y","Ġbur den","b ow","h arm","an ge","Ġm ur","Ġf right","Ġc up","Ġd et","Ġth irst","go t","Ġshe pher","ae us","co gn","me ats","bo x","Ġido ls","b as","b ook","c ons","f at","g ers","m ark","se t","Ġh oney","Ġs imilarly","Ġp ay","al i","Ġal ways","Ġr ams","Ġpro duced","sp el","Ġcl oud","Ġten th","power ful","Ġforn ic","Ġphar ise","Ġprecept s","Ġbor ne","Ġvirt ue","inher it","a ves","c lo","Ġw ound","ar row","Ġh abit","Ġs ides","Ġat rium","ry ing","Ġsee king","Ġdis p","con tin","li ing","Ġwal king","Ġsanct ify","wom ans","need s","Ġwhe ther","ceeding ly","d aniel","f ool","r ation","s ame","s how","y al","Ġw rite","Ġs ho","Ġc ru","Ġl ion","ad v","Ġat t","Ġun fair","Ġro yal","ang er","Ġper mit","Ġabl ed","unfair nesses","know ledge","lead er","Ġprom ised","beg inning","Ġestabl ished","Ġauthor ity","k ins","m en","r ess","Ġw ro","of ern","ar my","Ġh ate","Ġh ates","Ġs n","Ġs ought","Ġb irds","Ġu r","Ġwe igh","ph an","Ġdo ct","Ġex ceedingly","Ġlike wise","Ġapp ointed","Ġpr ess","Ġcomp an","Ġsat is","irm ing","pre sent","Ġprophes y","igen t","Ġwro te","b ack","h ave","m oney","p our","p he","Ġh ang","Ġb ones","Ġt rem","Ġfor t","Ġj ump","pe ter","Ġst e","Ġme as","sel ess","ud ent","ct ers","Ġpro st","Ġpro tect","Ġacc us","Ġri ch","Ġri sen","Ġro ck","ser ved","Ġinhabit ing","Ġsacrif ices","Ġsome one","Ġadd ed","great ly","ac ross","Ġh ung","Ġa h","Ġf ought","Ġd ou","Ġp oll","Ġi g","Ġhe alth","Ġt rou","Ġar rang","Ġup ons","Ġgreat ly","Ġcar e","Ġevery one","Ġfollow ed","tru st","Ġbl asph","prophet s","Ġmultip ly","Ġmin ister","hel p","fru its","iordan em","f ail","r ine","se arch","Ġs par","Ġs ad","Ġb ind","Ġm ale","Ġa ir","Ġg ifts","Ġt read","od om","ight y","pp ing","Ġsin ner","Ġne ck","Ġent rance","Ġpre ach","Ġgen erations","Ġrel ations","Ġloo ked","a ses","e a","l asting","Ġw alls","Ġl ies","ak im","Ġse v","Ġse ll","ic ted","ther n","Ġst reet","um in","ime on","Ġtru e","Ġfirst born","she pher","ps alm","Ġsub du","imil ar","Ġcount ry","Ġconso led","b on","c y","k ind","t ings","Ġ ve","en circling","Ġw riting","Ġb ene","es sed","Ġa ges","re commend","im p","ri es","mo ke","Ġab und","ful ness","de ad","ser v","Ġevil s","Ġinc ense","Ġempt y","tre asure","Ġentrust ed","b ing","l isten","w ifes","Ġs ar","Ġs la","Ġa part","Ġg ad","Ġg rie","Ġth inking","am els","nor th","Ġser ved","good s","Ġkill ing","Ġpur su","Ġce ase","Ġce lebr","pr essing","send ing","think ings","Ġpharise es","e ans","u rif","th i","ll ed","Ġf locks","le avened","Ġd an","Ġt orr","Ġde b","Ġwe alth","Ġbeg ins","Ġserv ice","Ġke pt","empt y","ship s","Ġlamb s","Ġglor ified","Ġash es","Ġvictim s","Ġreced ed","Ġtabl ets","got ten","a vers","b oo","g i","j our","o ke","t aking","it ary","is sed","Ġg alilee","for m","Ġt aught","Ġt empt","il y","if fer","Ġwe ight","Ġat ing","Ġun just","ile ad","Ġro b","sp ir","Ġdel ay","her self","Ġvis ion","res h","Ġdem ol","ala ad","k id","l ab","r ay","in c","in habit","at ive","Ġof ing","st ret","il s","Ġst ir","Ġal as","Ġun cover","Ġri ches","Ġcomm on","ix ed","Ġfail ing","ala am","Ġever lasting","off ering","Ġlear ned","Ġanim als","Ġsev enty","e phraim","f ive","l ive","the l","Ġs its","ab el","Ġsh ad","al ous","Ġso jour","ud den","Ġwe eping","Ġdo ing","com par","Ġex plain","Ġad ore","Ġent ering","Ġabl ing","Ġappear ance","Ġpet ition","call ing","Ġdesol ate","inf anc","f oul","m ind","s le","s itting","t empt","Ġ vo","Ġ vessel","Ġw ings","Ġs m","ro ck","Ġhe ll","ra in","Ġcom par","Ġcon vers","nam es","Ġshe kels","Ġdes cri","Ġhold ed","Ġgr ant","sen ce","Ġcarry ing","Ġdiscip line","Ġdec lar","Ġstret ch","Ġarrog ance","Ġsprink led","Ġtransgr ess","Ġchari ots","b us","f oolish","w are","es th","Ġd ust","Ġl oud","Ġin s","Ġt y","Ġsh ame","Ġsh aken","Ġe ag","Ġfor ed","Ġo ak","Ġme mor","Ġoff ers","ang ed","pro tect","Ġfight ing","Ġsign s","Ġuse ful","Ġcour t","Ġexam ine","Ġfulfill ed","Ġcrush ed","Ġig nor",") <","; <","c apt","c up","h ar","i pped","p ay","s ad","u ish","w alls","ar ing","Ġd ried","Ġt ents","Ġar t","Ġre cogn","em ent","Ġde p","Ġch urch","la x","anc ing","Ġbu ried","Ġcle ar","att les","Ġox en","nat ure","sanct uary","lum ns","Ġchald eans","dark nesses","coll ect","Ġdoct rine","a im","h ard","l ie","p ain","ac ks","Ġs imon","Ġs imilar","Ġb orders","at tend","Ġc ro","ro b","Ġin no","st ri","st rengthes","al ive","lo ve","ru ling","we ak","ind ignation","Ġpre sence","Ġri vers","Ġmid dle","Ġshow s","Ġsome thing","Ġcho sen","su ff","Ġhel ped","Ġconsum e","b ers","c i","e at","e ses","i ver","s uch","in ce","ar um","Ġb aal","ow ers","Ġt al","id er","al as","Ġit self","ch ances","ain ts","Ġwas te","Ġn aked","Ġam or","end er","Ġch ains","Ġjust ly","man asses","pro claim","aw are","Ġbeg in","Ġwal ks","Ġadvanc es","under standing","ene my","bar gain","fall ing","household s","mot ion","b ones","e astern","g al","h alf","l ower","p rom","s we","in ner","Ġs imeon","Ġa p","Ġbe lo","re proach","ho l","Ġd run","Ġd ream","Ġp ra","Ġt ears","ach el","Ġme at","Ġal ives","Ġex c","Ġunder t","Ġeat en","Ġcl ouds","Ġgood s","Ġcont r","me asure","Ġcan not","Ġpit ch","Ġfru its","Ġprom ise","Ġhol ofern","lamb s","educ ation","Ġbelo ved","! \"","e e","h on","in th","in ter","ar ound","par ts","Ġto day","Ġt akes","out side","Ġgo spel","est y","Ġst ars","qu ence","Ġlead s","tri but","Ġim maculate","wo e","sp es","Ġper fect","Ġob serve","wom b","Ġteach ing","Ġes c","Ġcover ing","Ġer ase","Ġter rif","Ġannoun ced","Ġdepar ting","Ġvir g","Ġmin ist","Ġobl ation","dr inking","Ġtrum pet","Ġlib ations","c or","g rief","w ind","th inking","the ir","in st","Ġw aies","ab a","Ġm ir","Ġto es","Ġd rew","Ġg ilead","Ġi oseph","ir ing","Ġle o","ke ep","Ġal m","ph aris","sh ort","Ġfall s","Ġconf idence","Ġremain s","ari a","Ġresp on","Ġapproach ing","Ġneed s","Ġass ist","wid th","Ġdro ve","essen gers","harm less","v ision","an other","Ġh op","er icho","Ġf ur","im maculate","be aut","Ġam az","Ġover s","mo ab","Ġsp l","Ġru ben","Ġlo ose","ib is","Ġshow n","Ġhid ing","ith ara","umc ision","sin ners","Ġrememb ered","Ġsatis fied","capt ivity","Ġrespon se","Ġamaz ed","a ens","c ut","d est","d ry","d ition","m adness","Ġ ate","Ġw o","Ġs ion","Ġf ool","Ġc laim","ic ult","wh el","urn ace","Ġch am","Ġad vers","Ġsin ai","Ġcall ing","read ing","Ġsc ar","tr act","des cend","Ġmour ning","Ġarrog ant","iff icult","Ġfright ened","inherit ance","d ust","g g","o li","p ses","s aints","v alley","Ġh ide","it arum","at rium","is m","Ġp il","Ġl ying","Ġt ear","Ġre mo","us ing","Ġk new","Ġle prosy","Ġde ep","ous ly","judah es","Ġhar vest","Ġaccompl ished","Ġquest ioned","Ġcondem n","mir acles","adv ancing","esth ood","d ent","m el","an e","Ġb al","Ġm adness","re h","Ġin v","Ġwh ite","us ion","il ing","Ġso on","op pos","ne ver","Ġher self","Ġim age","me et","Ġtest imonies","ex p","vi ol","put ting","Ġter ror","bl ind","equ ally","Ġcour se","Ġbeaut iful","ox s","follow ing","erub im","Ġafflict ion","cho sen","Ġple asing","Ġviney ard","Ġhung ry","iffer ent","b inding","h unger","o int","z er","Ġ ach","se mb","an y","Ġs uc","gen erations","Ġf ron","Ġc ros","Ġg ift","Ġp i","Ġp urif","Ġin tro","Ġsh ar","Ġe v","ra ge","ent ry","lo o","Ġst udent","et ime","Ġle vi","Ġent reat","Ġset ting","ol ation","Ġdest ruction","Ġthan ks","ma el","Ġglad ness","Ġdraw n","Ġattent ion","Ġresc ue","Ġbene f","Ġtorr ent","d ri","j ourney","k iah","l in","s an","no n","Ġh orns","Ġs us","ing er","ed s","Ġc ed","Ġg rief","Ġp alm","im in","Ġt ending","st ance","ic um","ent rance","Ġn at","Ġab imelech","Ġdown ing","de ep","Ġro ot","Ġra ved","Ġother wise","Ġsub ject","foo t","Ġill umin","pr ay","Ġwid ow","Ġfoo ts","Ġben iamin","Ġsec ret","Ġtra vel","Ġlear n","Ġextend ed","e ph","l ength","m il","s am","s ue","it self","Ġf ountain","Ġc ant","Ġl ang","Ġe le","ut ure","Ġfor mer","Ġst or","Ġst aff","Ġhear s","Ġrem n","sw ift","jud ge","me as","wor king","Ġrep ent","su pp","Ġcrow n","Ġstret ched","Ġscri be","Ġtra ve","aged er","Ġhum ble","Ġast ray","bro ad","Ġmaster ed","nago gue","Ġoc cur","wal king","Ġcru c","Ġunfair ness","Ġalm ighty","b ron","f arm","j esty","o be","th in","an ing","Ġw ear","re mo","Ġl ament","Ġe leazar","Ġse x","ur rect","Ġre ver","us tom","Ġn umb","Ġover whel","Ġper ce","ib ility","ser ving","Ġtoward s","wor thy","circ umcised","rag ed","Ġguard s","Ġwit ness","mem ory","prepar ing","Ġcant ic","f our","f locks","m erc","o ch","r ates","u ck","w it","Ġh ind","is aac","Ġf oundat","Ġf uture","Ġc al","Ġd ug","Ġp ill","im mediately","Ġt em","id on","Ġare a","ach ar","Ġgo ver","Ġas king","Ġan ointed","Ġal ived","so lemn","Ġpro duce","Ġco vers","ag ate","den ing","Ġremain der","Ġrep let","Ġfour th","Ġfield s","Ġcontin ue","Ġsupp ort","iet y","cl imb","Ġhill s","contin uous","udden ly","Ġinno cent","Ġterrif ied","en ses","Ġw est","Ġb ars","Ġb roke","Ġof s","Ġc a","Ġg ird","Ġp ain","el u","Ġj ob","Ġsa int","ch em","Ġover turn","Ġv al","Ġsp ring","ound ing","Ġhouse hold","Ġbeg un","po st","Ġreg ions","Ġcry ing","Ġrequ ire","Ġmour n","Ġplant ed","reg ret","Ġabandon ed","Ġpoll uted","Ġshad ow","Ġsm ear","c ious","h air","h orns","r ams","ar ched","is ions","to p","Ġm ort","Ġf em","Ġl ow","Ġin eb","for get","Ġsh ed","el o","au gh","Ġat s","Ġwor thy","Ġrep orted","Ġpass ing","Ġdef lect","Ġpresent ed","Ġsuff ic","Ġscri bes","car rying","Ġsy ri","Ġcommit ted","ierem iam","Ġundert aked","oppos ite","Ġineb ri","b ars","l ip","l ament","t aste","u ri","th ose","in ates","Ġf in","Ġbe tr","re en","le hem","Ġd uring","Ġl end","Ġl ist","Ġhe aled","Ġe lect","lo ad","he th","ph th","Ġcon verted","ish es","Ġex ec","con secrated","ub lic","orn ed","Ġsend ing","Ġreturn ing","Ġhold ing","ens ive","Ġcount ed","Ġtre as","Ġsupp l","Ġfriend s","Ġreign ed","hem ently","iti ates","Ġow e","Ġdou ble","meet ing","c ast","o ked","s at","s al","v y","se izing","th ree","ac king","Ġs ick","Ġs odom","ll ow","Ġb ury","Ġb order","Ġm ine","Ġf aces","Ġc re","Ġc orn","le ft","Ġi r","for s","ut y","ad ian","pas s","Ġwh irl","Ġst rang","Ġli keness","um er","Ġsp rout","Ġch amb","Ġfe w","spe cters","Ġpos ses","ail y","Ġtri al","av y","den ce","Ġclo thing","Ġdescend ing","te en","Ġtrans p","Ġcle ans","Ġbuild ing","Ġdwell ing","Ġrelea sed","Ġrede em","Ġphil ist","Ġdonke y","bas in","Ġur inates","Ġarrang ed","Ġabund ance","Ġcelebr ate","suff ering","elu ia","Ġbetr ay","Ġchamb ers","b a","c ro","d et","d rink","f le","g lor","l ated","n un","n abuchodonosor","t em","se ven","se ats","Ġh anan","Ġs ize","it ution","Ġb ri","Ġf lying","Ġc amels","ho od","Ġin ing","Ġhe bre","ad ab","ru le","com p","Ġcon st","Ġhand ed","Ġv owed","Ġun able","Ġlead ing","Ġjust ices","ree able","de c","Ġfear ing","Ġcl ay","Ġmid ian","fl owing","she kels","ex alt","Ġbel ong","get ting","Ġtabern acles","Ġworld s","Ġpur sue","remain ses","Ġlab ors","cover ing","Ġbelie ved","Ġreign s","tr ans","Ġpri ce","Ġaffl icted","Ġed uc","land s","rich eses","Ġpath s","Ġgrind ed","Ġincre ased","victim s","Ġencou rage","Ġcham ber","Ġlang u","urrect ion","j ah","l ined","s ome","t ables","Ġs kin","Ġb ask","Ġc at","le y","Ġd ies","Ġp ause","Ġi o","Ġe z","ri ble","Ġse em","Ġch anged","Ġshe eps","Ġagain ed","Ġland s","Ġput ting","per fect","Ġarri ves","Ġarri val","Ġspir its","Ġmerc iful","Ġcommand ment","ys s","Ġsix ty","hor se","Ġty re","tribut ion","Ġcantic le","a way","c ern","f ast","h ur","o st","p athes","s it","s ong","s ight","s abbath","s ister","en ance","Ġm ist","Ġm ary","Ġf re","Ġf ears","Ġin tend","Ġt i","ri but","pas sion","ru in","Ġas semb","Ġst ra","Ġst range","Ġcom passion","un to","Ġmo on","Ġne cessary","ale b","Ġru ined","de acons","tri bulation","Ġhold s","Ġappro priate","Ġrest ore","Ġsacrif iced","Ġguard ed","sc ri","Ġplea ses","after wards","gra ved","Ġholocau sts","Ġpri esthood","nat ch","Ġcontinu ally","Ġwand er","crow n","Ġabomin ations","pret ation","Ġtob ias","Ġrede emed","Ġdrun k","merc iful","b ling","b itter","c ertain","l ion","m ale","u ses","Ġf ed","Ġf arm","Ġto mb","Ġha m","Ġt or","Ġsh ort","Ġfor gotten","Ġo live","Ġsa vi","Ġk in","op en","qu et","Ġher od","Ġshe chem","Ġjust ified","Ġser p","sh out","Ġsc our","Ġclo sed","Ġclo thes","tru ly","Ġsub stance","Ġclean sed","Ġill ing","Ġrejo icing","Ġrequ ires","Ġglor ify","Ġsepar ated","Ġexp i","Ġwond ers","Ġforn ication","appro priate","Ġpru dence","swe eping","b al","d ream","f lock","m ules","n ations","p ur","u ph","th an","Ġh at","to o","Ġf lax","Ġth orns","Ġha il","Ġt im","Ġt reat","ri vers","Ġse n","Ġse ing","Ġfor m","Ġj ericho","be asts","Ġre ject","ch ar","est als","Ġst u","et y","Ġan c","Ġr an","Ġr id","Ġcon secrated","Ġhand maid","Ġpl under","Ġspe ech","Ġpre cious","Ġim posed","Ġunder take","ae orum","aw n","comm on","first s","Ġseiz es","Ġdist ribut","Ġdev ast","te ll","Ġsle pt","Ġpas sover","sea es","Ġempt iness","kill ing","Ġmil k","Ġrul er","Ġsla ves","boo ty","Ġcros sed","Ġentreat s","Ġremn ant","Ġphilist ines","Ġsavi or","c ari","h iding","j e","p ool","s tom","Ġ ought","it ate","Ġb end","to morrow","Ġm is","Ġf lood","Ġd u","Ġd ig","Ġl ar","Ġl aid","Ġl augh","Ġsh out","od or","ver b","Ġre al","Ġsa le","Ġup right","ch ains","if ication","pe ts","Ġst ore","Ġall ow","op s","ul ation","Ġle ban","Ġam b","Ġwe ep","ph il","Ġcon qu","ne ither","Ġad am","Ġdis m","other wise","Ġz ed","Ġsw orn","Ġinst ru","Ġtest ed","Ġbre ast","Ġproclaim ing","sc ent","Ġbeat en","Ġhel per","Ġsing ing","Ġaccept ed","Ġsepar ate","Ġdesol ation","Ġexult ation","Ġwit nesses","Ġadulter y","Ġma jesty","Ġdr inking","Ġstreet s","Ġsubdu ed","gi ven","Ġholofern es","Ġfron t","Ġfem ale","stom ach","d ear","l ow","p ure","w ed","sep ar","th s","ou thern","Ġb ases","to b","Ġf il","re turn","Ġc eremonies","Ġto ing","Ġd am","Ġp owers","ro om","Ġe astern","ad am","el ing","ic al","Ġre ed","pe fied","Ġn ib","Ġn amed","et ting","Ġso iled","we ight","Ġle ast","vo id","Ġun less","Ġun leavened","ag reeable","Ġser ving","Ġpre y","Ġdis per","just ices","Ġro of","comm and","Ġbo ast","ff ect","burn ing","Ġer ased","Ġprophes ied","ming ling","ek iah","pret ty","Ġmil itary","pour ing","Ġblasph emed","fail ing","compar ison","Ġignor ant","Ġstu pefied","c ru","d rag","g l","Ġd ran","ro ot","al es","Ġse ir","Ġfor ring","Ġfor bear","Ġfor given","pe at","Ġst ation","un uch","Ġcon secr","Ġpl ants","Ġpl ains","ne ck","ave lin","Ġapp reh","Ġper sec","Ġqu ar","Ġkind led","Ġkingdom s","sc atter","bu ild","Ġce ased","Ġdem ons","vest ig","asc ibility","Ġmal ice","Ġincre ase","venge ance","Ġimmo lated","Ġprost r","Ġvirg in","Ġhop ed","obe ying","Ġnumb ered","Ġzed ekiah","Ġdran k","c ake","c op","e ag","f oundat","i ob","p ers","u ed","ar ed","it al","Ġf urnace","Ġd uty","Ġe ight","Ġyour s","Ġn ah","est il","Ġst udents","he alth","Ġno ise","ist ed","Ġwor king","Ġbac ks","Ġen joy","Ġlo c","Ġfall ing","pl ant","Ġpers ians","Ġcast ed","ari us","Ġend ure","Ġpray ers","Ġpar able","Ġpur ple","Ġcur ed","gu es","Ġte eth","equ ip","wid owed","Ġlamp s","Ġwand ered","food s","arrog ance","Ġbitter ness","Ġmeas ured","infanc ies","tempt ation","c and","c ing","c le","i ers","l ay","m ur","t able","z z","th am","ac inth","Ġs moke","Ġs idon","Ġs uddenly","it t","Ġm atter","Ġa post","Ġwi ther","Ġc ithara","par ching","ve hemently","Ġi d","Ġis h","Ġsh ake","Ġe lo","Ġe ph","od ies","ir ascibility","out er","ad ise","be ware","one ment","Ġre be","ch ance","Ġle aven","Ġno ne","um ulation","ish ment","ne ct","Ġher d","Ġturn s","ang els","sp ot","wor st","Ġje w","dis grace","height s","Ġfors aken","Ġfif th","conf irming","Ġprop agate","arrog ant","Ġshepher ds","Ġaccus to","Ġmemor ial","Ġsmear ed","forget ing","lament ations","Ġleban on","b les","h es","s om","w ild","Ġ vengeance","an noun","Ġb ought","ed ge","Ġm ark","re ar","Ġc oo","Ġd il","Ġd ifficult","Ġp an","Ġp un","Ġp ie","Ġi osue","Ġhe ze","Ġsh ine","ad ed","Ġfor est","ra f","il ty","Ġde w","Ġpl ay","ne es","Ġch ange","Ġjud ea","Ġlo ving","Ġtru sts","Ġdes ires","oll y","Ġrest ed","her d","Ġgu ilty","Ġshow ed","Ġconce al","bel ow","Ġsurround ing","Ġcorrupt ed","Ġtrou bled","Ġdescri be","collect ing","proclaim ing","Ġesc ape","another s","Ġrid ic","Ġamb ush","Ġaccusto med","Ġpie ces","e z","e very","f ig","h ill","l ips","s qu","t imes","u ally","w ide","no on","Ġw rought","it ions","Ġb ase","or ah","at ors","on t","as king","Ġg ed","Ġg alaad","ro at","Ġin qu","Ġhe at","Ġe thi","ri age","Ġse at","Ġk id","op ia","Ġde acons","Ġr achel","ist s","Ġmo abit","Ġoff enses","Ġab ound","Ġlo st","li able","Ġper petual","Ġang uish","Ġend s","Ġdisc ern","Ġcut tings","abb athes","ced e","res sed","res hold","Ġwra pped","Ġrequ est","Ġash amed","crow bars","Ġquest ion","Ġvest ib","ration al","Ġve il","alous y","Ġexplain ed","inst ead","Ġwo e","Ġpil ate","Ġcruc ified","Ġgover nor","Ġsuffic ient","Ġsyri a","Ġlist ened","Ġposses sed","Ġloc ust","Ġheze kiah","c reat","r ace","s kin","s land","Ġw ail","Ġb ad","at ue","Ġm ules","Ġbe thel","re peat","Ġc y","Ġto morrow","Ġg er","Ġt aste","Ġe no","pas sover","ch urch","Ġn ur","ard en","go at","Ġat ed","Ġab yss","ub en","Ġro d","ap ed","pl ace","ass ur","Ġdiv ine","Ġfl ame","Ġob ed","ex am","tru e","Ġsur face","Ġsal t","Ġcamp ing","Ġter rible","Ġprov ide","Ġwond er","Ġpsalm s","Ġinf irm","Ġvest ments","ierem ias","Ġhy acinth","Ġweak ened","shepher d","Ġdeclar e","Ġassemb ly","pur ple","Ġlar ge","Ġish mael","c our","c eremonies","g round","g reet","h orn","i o","o so","s to","s achar","Ġs i","Ġb ash","Ġm ak","Ġm aid","Ġf er","as ant","Ġc ase","Ġc ards","Ġd ue","Ġd imin","Ġp ublic","Ġis sachar","Ġsh ut","Ġe ither","lo ose","be ast","ch e","ong ues","Ġno ah","Ġover come","Ġpl an","Ġpro sp","Ġor phan","Ġoff ense","Ġy oke","sh aring","iv ion","ure ly","Ġeat ing","Ġgi ld","Ġgi be","bes ides","Ġburn s","Ġconf usion","Ġgood ness","ple asing","rem ind","Ġcont empt","Ġarm s","Ġspo ils","Ġpray ed","Ġhid es","Ġsl aughter","Ġwa it","Ġwa ves","duc es","Ġsabbath s","Ġchald aens","more over","Ġmagn ified","Ġdisp lea","Ġpermit ted","Ġwealth y","avers ions","Ġtransgress ion","Ġpra ised","Ġmir acles","Ġscar let","exp ensive","Ġshar p","Ġbenef it","meas uring","Ġsuppl ication","oso ly","Ġbash an","b irds","c ross","g alilee","h ail","p ort","t ree","v aul","Ġ odor","ac y","Ġw rong","Ġs ong","Ġm at","Ġm et","Ġp estil","Ġl ower","ro of","Ġi ordan","Ġin ner","Ġe p","ad es","al tar","Ġar rows","Ġre ward","Ġre uben","Ġn athan","Ġan t","pt ion","sed ec","Ġr ings","com motion","Ġch ast","sh ade","ign ite","sp rout","Ġper ished","Ġstand s","pl ay","Ġnear ing","bre athes","me ll","Ġob served","Ġpo st","her b","Ġje ho","full ness","ran kin","empt ion","empt iness","Ġpray ered","Ġgra ven","Ġpar ents","Ġsle eping","Ġcreat ures","fear ing","Ġdem on","maid en","Ġze bul","Ġfast ened","Ġden y","Ġequ ip","Ġrebu ke","Ġheed ed","Ġrush ed","nago gues","Ġdonke ys","Ġprovo ked","Ġmur der","Ġshepher d","Ġsn are","stret ching","sle ep","beaut iful","Ġintro duced","Ġkin ships","rankin c","c a","c are","c attles","f old","g irl","l iness","s um","z or","Ġw arm","Ġs if","er x","Ġb odies","at or","es au","ab ul","Ġbe for","Ġth rew","Ġl od","Ġhe al","Ġsh em","ver e","ver ty","ear ly","ur ches","Ġj es","Ġn et","Ġas aph","so iling","Ġpl ain","ne ies","ne cessary","Ġher ds","Ġv an","Ġex erc","Ġcall s","Ġab ram","Ġbefore hand","Ġabout ed","Ġsend s","Ġafter wards","per haps","Ġqu en","Ġbre a","az ar","Ġsto ck","she ep","Ġgather ing","Ġvis ited","Ġfell ow","umb ling","Ġcollect ing","ash ing","Ġtre asure","Ġfoolish ness","bel ie","Ġcontinu ed","ax erx","Ġequ al","Ġdesp ised","Ġviney ards","Ġpat ience","calf s","Ġrul ers","lab or","Ġstir red","Ġclear lied","Ġap pe","Ġcontr ad","mil k","Ġti thes","ffect ive","Ġelo quence","rankinc ense","d ifferent","e ll","e on","f right","n arrow","s ar","s ix","t al","t ali","w rong","x ic","in n","Ġs kins","Ġb alaam","es ar","es op","Ġm esh","Ġc aleb","Ġl ions","Ġin vo","Ġin tent","Ġin itiates","Ġhe bron","for ce","Ġt orn","Ġu sed","ir med","am orrh","Ġar range","el t","Ġfor ce","Ġre cl","Ġn abuchodonosor","Ġman if","Ġover turned","Ġpl uck","Ġpro ve","ide on","aul t","ai a","con tract","Ġpr ince","Ġbo at","Ġord ers","fl ame","Ġimp iety","Ġcut ting","ot am","Ġsat an","Ġinher its","Ġcount enance","Ġcrow ds","Ġbr ings","Ġprov inces","Ġscri pt","Ġcanaan ite","Ġtow n","Ġabomin ation","Ġreced e","Ġwithdraw n","Ġtrum pets","Ġsam son","Ġsam aria","Ġdeceit ful","Ġsol itude","Ġsar ah","spir its","prom ising","Ġspl end","Ġsex ual","Ġperce ive","Ġvestib ule","esop otam","c ial","f olly","j avelin","k ings","m ach","m ast","o ak","p ities","s m","s ho","u ge","se bon","and er","no ise","ar iah","Ġh orn","Ġa z","Ġa head","Ġf ift","Ġof ed","Ġc aught","Ġg ideon","ro kes","Ġsh ield","Ġar ise","ic s","Ġo int","wh irl","Ġk ad","Ġn aph","Ġde al","Ġout cry","Ġwe pt","Ġr ene","Ġcon nect","mo ving","Ġear thes","Ġad ored","de v","Ġra gu","Ġjo in","pl ic","pl ate","Ġlaw s","raw ling","wat ch","Ġfour teen","Ġfle es","du ct","Ġdeser ted","Ġbear ing","remain ing","pr ison","pri ce","Ġbar ley","Ġstret ches","Ġdisturb s","Ġfull ness","friend ly","equ ipped","Ġloo ks","area es","Ġpast ure"]}}